{
  "version": "1.0",
  "truncation": null,
  "padding": null,
  "added_tokens": [
    {
      "id": 0,
      "content": "<unk>",
      "single_word": false,
      "lstrip": false,
      "rstrip": false,
      "normalized": false,
      "special": true
    },
    {
      "id": 1,
      "content": "<bos>",
      "single_word": false,
      "lstrip": false,
      "rstrip": false,
      "normalized": false,
      "special": true
    },
    {
      "id": 2,
      "content": "<eos>",
      "single_word": false,
      "lstrip": false,
      "rstrip": false,
      "normalized": false,
      "special": true
    },
    {
      "id": 3,
      "content": "<pad>",
      "single_word": false,
      "lstrip": false,
      "rstrip": false,
      "normalized": false,
      "special": true
    }
  ],
  "normalizer": {
    "type": "Sequence",
    "normalizers": [
      {
        "type": "NFC"
      }
    ]
  },
  "pre_tokenizer": {
    "type": "Whitespace"
  },
  "post_processor": null,
  "decoder": {
    "type": "BPEDecoder",
    "suffix": "</w>"
  },
  "model": {
    "type": "BPE",
    "dropout": null,
    "unk_token": "<unk>",
    "continuing_subword_prefix": null,
    "end_of_word_suffix": null,
    "fuse_unk": false,
    "byte_fallback": false,
    "ignore_merges": false,
    "vocab": {
      "<unk>": 0,
      "<bos>": 1,
      "<eos>": 2,
      "<pad>": 3,
      "!": 4,
      "\"": 5,
      "$": 6,
      "%": 7,
      "'": 8,
      "(": 9,
      ")": 10,
      "*": 11,
      ",": 12,
      "-": 13,
      ".": 14,
      "/": 15,
      "0": 16,
      "1": 17,
      "2": 18,
      "3": 19,
      "4": 20,
      "5": 21,
      "6": 22,
      "7": 23,
      "8": 24,
      "9": 25,
      "?": 26,
      "@": 27,
      "[": 28,
      "\\": 29,
      "]": 30,
      "ሀ": 31,
      "ሁ": 32,
      "ሂ": 33,
      "ሃ": 34,
      "ሄ": 35,
      "ህ": 36,
      "ሆ": 37,
      "ሇ": 38,
      "ለ": 39,
      "ሉ": 40,
      "ሊ": 41,
      "ላ": 42,
      "ሌ": 43,
      "ል": 44,
      "ሎ": 45,
      "ሏ": 46,
      "ሐ": 47,
      "ሑ": 48,
      "ሒ": 49,
      "ሓ": 50,
      "ሔ": 51,
      "ሕ": 52,
      "ሖ": 53,
      "መ": 54,
      "ሙ": 55,
      "ሚ": 56,
      "ማ": 57,
      "ሜ": 58,
      "ም": 59,
      "ሞ": 60,
      "ሟ": 61,
      "ሠ": 62,
      "ሡ": 63,
      "ሢ": 64,
      "ሣ": 65,
      "ሤ": 66,
      "ሥ": 67,
      "ሦ": 68,
      "ረ": 69,
      "ሩ": 70,
      "ሪ": 71,
      "ራ": 72,
      "ሬ": 73,
      "ር": 74,
      "ሮ": 75,
      "ሯ": 76,
      "ሰ": 77,
      "ሱ": 78,
      "ሲ": 79,
      "ሳ": 80,
      "ሴ": 81,
      "ስ": 82,
      "ሶ": 83,
      "ሷ": 84,
      "ሸ": 85,
      "ሹ": 86,
      "ሺ": 87,
      "ሻ": 88,
      "ሼ": 89,
      "ሽ": 90,
      "ሾ": 91,
      "ሿ": 92,
      "ቀ": 93,
      "ቁ": 94,
      "ቂ": 95,
      "ቃ": 96,
      "ቄ": 97,
      "ቅ": 98,
      "ቆ": 99,
      "ቇ": 100,
      "ቈ": 101,
      "ቊ": 102,
      "ቋ": 103,
      "ቌ": 104,
      "ቍ": 105,
      "ቐ": 106,
      "ቑ": 107,
      "ቒ": 108,
      "ቓ": 109,
      "ቔ": 110,
      "ቕ": 111,
      "ቖ": 112,
      "ቘ": 113,
      "ቚ": 114,
      "ቛ": 115,
      "ቜ": 116,
      "ቝ": 117,
      "በ": 118,
      "ቡ": 119,
      "ቢ": 120,
      "ባ": 121,
      "ቤ": 122,
      "ብ": 123,
      "ቦ": 124,
      "ቧ": 125,
      "ቨ": 126,
      "ቩ": 127,
      "ቪ": 128,
      "ቫ": 129,
      "ቬ": 130,
      "ቭ": 131,
      "ቮ": 132,
      "ቯ": 133,
      "ተ": 134,
      "ቱ": 135,
      "ቲ": 136,
      "ታ": 137,
      "ቴ": 138,
      "ት": 139,
      "ቶ": 140,
      "ቷ": 141,
      "ቸ": 142,
      "ቹ": 143,
      "ቺ": 144,
      "ቻ": 145,
      "ቼ": 146,
      "ች": 147,
      "ቾ": 148,
      "ቿ": 149,
      "ኀ": 150,
      "ኁ": 151,
      "ኂ": 152,
      "ኃ": 153,
      "ኄ": 154,
      "ኅ": 155,
      "ኆ": 156,
      "ኈ": 157,
      "ኊ": 158,
      "ኋ": 159,
      "ኌ": 160,
      "ኍ": 161,
      "ነ": 162,
      "ኑ": 163,
      "ኒ": 164,
      "ና": 165,
      "ኔ": 166,
      "ን": 167,
      "ኖ": 168,
      "ኗ": 169,
      "ኘ": 170,
      "ኙ": 171,
      "ኚ": 172,
      "ኛ": 173,
      "ኜ": 174,
      "ኝ": 175,
      "ኞ": 176,
      "ኟ": 177,
      "አ": 178,
      "ኡ": 179,
      "ኢ": 180,
      "ኣ": 181,
      "ኤ": 182,
      "እ": 183,
      "ኦ": 184,
      "ኧ": 185,
      "ከ": 186,
      "ኩ": 187,
      "ኪ": 188,
      "ካ": 189,
      "ኬ": 190,
      "ክ": 191,
      "ኮ": 192,
      "ኯ": 193,
      "ኰ": 194,
      "ኲ": 195,
      "ኳ": 196,
      "ኴ": 197,
      "ኵ": 198,
      "ኸ": 199,
      "ኹ": 200,
      "ኺ": 201,
      "ኻ": 202,
      "ኼ": 203,
      "ኽ": 204,
      "ኾ": 205,
      "ዀ": 206,
      "ዂ": 207,
      "ዃ": 208,
      "ዄ": 209,
      "ዅ": 210,
      "ወ": 211,
      "ዉ": 212,
      "ዊ": 213,
      "ዋ": 214,
      "ዌ": 215,
      "ው": 216,
      "ዎ": 217,
      "ዏ": 218,
      "ዐ": 219,
      "ዑ": 220,
      "ዒ": 221,
      "ዓ": 222,
      "ዔ": 223,
      "ዕ": 224,
      "ዖ": 225,
      "ዘ": 226,
      "ዙ": 227,
      "ዚ": 228,
      "ዛ": 229,
      "ዜ": 230,
      "ዝ": 231,
      "ዞ": 232,
      "ዟ": 233,
      "ዠ": 234,
      "ዡ": 235,
      "ዢ": 236,
      "ዣ": 237,
      "ዤ": 238,
      "ዥ": 239,
      "ዦ": 240,
      "የ": 241,
      "ዩ": 242,
      "ዪ": 243,
      "ያ": 244,
      "ዬ": 245,
      "ይ": 246,
      "ዮ": 247,
      "ዯ": 248,
      "ደ": 249,
      "ዱ": 250,
      "ዲ": 251,
      "ዳ": 252,
      "ዴ": 253,
      "ድ": 254,
      "ዶ": 255,
      "ዷ": 256,
      "ዸ": 257,
      "ዹ": 258,
      "ዺ": 259,
      "ዻ": 260,
      "ዽ": 261,
      "ጀ": 262,
      "ጁ": 263,
      "ጂ": 264,
      "ጃ": 265,
      "ጄ": 266,
      "ጅ": 267,
      "ጆ": 268,
      "ጇ": 269,
      "ገ": 270,
      "ጉ": 271,
      "ጊ": 272,
      "ጋ": 273,
      "ጌ": 274,
      "ግ": 275,
      "ጎ": 276,
      "ጏ": 277,
      "ጐ": 278,
      "ጒ": 279,
      "ጓ": 280,
      "ጔ": 281,
      "ጕ": 282,
      "ጘ": 283,
      "ጙ": 284,
      "ጚ": 285,
      "ጛ": 286,
      "ጝ": 287,
      "ጟ": 288,
      "ጠ": 289,
      "ጡ": 290,
      "ጢ": 291,
      "ጣ": 292,
      "ጤ": 293,
      "ጥ": 294,
      "ጦ": 295,
      "ጧ": 296,
      "ጨ": 297,
      "ጩ": 298,
      "ጪ": 299,
      "ጫ": 300,
      "ጬ": 301,
      "ጭ": 302,
      "ጮ": 303,
      "ጰ": 304,
      "ጱ": 305,
      "ጲ": 306,
      "ጳ": 307,
      "ጴ": 308,
      "ጵ": 309,
      "ጶ": 310,
      "ጸ": 311,
      "ጹ": 312,
      "ጺ": 313,
      "ጻ": 314,
      "ጼ": 315,
      "ጽ": 316,
      "ጾ": 317,
      "ጿ": 318,
      "ፀ": 319,
      "ፁ": 320,
      "ፂ": 321,
      "ፃ": 322,
      "ፄ": 323,
      "ፅ": 324,
      "ፆ": 325,
      "ፈ": 326,
      "ፉ": 327,
      "ፊ": 328,
      "ፋ": 329,
      "ፌ": 330,
      "ፍ": 331,
      "ፎ": 332,
      "ፏ": 333,
      "ፐ": 334,
      "ፑ": 335,
      "ፒ": 336,
      "ፓ": 337,
      "ፔ": 338,
      "ፕ": 339,
      "ፖ": 340,
      "፟": 341,
      "፠": 342,
      "፡": 343,
      "።": 344,
      "፣": 345,
      "፤": 346,
      "፥": 347,
      "፦": 348,
      "፧": 349,
      "፨": 350,
      "፩": 351,
      "፪": 352,
      "፫": 353,
      "፬": 354,
      "፭": 355,
      "፮": 356,
      "፯": 357,
      "፰": 358,
      "፱": 359,
      "፲": 360,
      "፳": 361,
      "፴": 362,
      "፵": 363,
      "፶": 364,
      "፷": 365,
      "፸": 366,
      "፹": 367,
      "፺": 368,
      "፻": 369,
      "፼": 370,
      "ኣብ": 371,
      "ታት": 372,
      "ከም": 373,
      "እን": 374,
      "ናይ": 375,
      "ካብ": 376,
      "ምስ": 377,
      "ውን": 378,
      "እዩ": 379,
      "ዝተ": 380,
      "ዘይ": 381,
      "እቲ": 382,
      "ኣይ": 383,
      "ትን": 384,
      "ድማ": 385,
      "ስለ": 386,
      "መን": 387,
      "ነት": 388,
      "ናብ": 389,
      "ነበ": 390,
      "እንተ": 391,
      "ቶም": 392,
      "ብም": 393,
      "እዚ": 394,
      "ክት": 395,
      "ምን": 396,
      "ዘለ": 397,
      "ሓደ": 398,
      "ሰብ": 399,
      "ብል": 400,
      "በር": 401,
      "ብር": 402,
      "ካል": 403,
      "ከኣ": 404,
      "እና": 405,
      "ሃገ": 406,
      "ዘሎ": 407,
      "ዝበ": 408,
      "ንም": 409,
      "ግን": 410,
      "ዝነበ": 411,
      "ወይ": 412,
      "ዮም": 413,
      "ዓመ": 414,
      "ምህ": 415,
      "ኣለ": 416,
      "ሎም": 417,
      "ኽእ": 418,
      "መር": 419,
      "ራት": 420,
      "20": 421,
      "ብረ": 422,
      "ባት": 423,
      "ርት": 424,
      "ምዃ": 425,
      "ክን": 426,
      "ሕሪ": 427,
      "ዓል": 428,
      "ነቲ": 429,
      "እታ": 430,
      "ያን": 431,
      "መስ": 432,
      "ታይ": 433,
      "ነይ": 434,
      "ወት": 435,
      "ንስ": 436,
      "ለት": 437,
      "ራዊ": 438,
      "ርእ": 439,
      "ርቲ": 440,
      "ተን": 441,
      "እውን": 442,
      "ግዜ": 443,
      "ባር": 444,
      "ኣስ": 445,
      "ክል": 446,
      "ማይ": 447,
      "ቤት": 448,
      "ስቲ": 449,
      "እም": 450,
      "ዋን": 451,
      "ይኑ": 452,
      "ረት": 453,
      "ተመ": 454,
      "ያት": 455,
      "ሳብ": 456,
      "ኽእል": 457,
      "ርከ": 458,
      "ኦም": 459,
      "ኤርት": 460,
      "ራሕ": 461,
      "ለይ": 462,
      "ላት": 463,
      "ራይ": 464,
      "ዝሓ": 465,
      "ረብ": 466,
      "ከይ": 467,
      "ዓይ": 468,
      "በል": 469,
      "ድሕሪ": 470,
      "ኤርትራ": 471,
      "ዝገ": 472,
      "እት": 473,
      "ተማ": 474,
      "ባህ": 475,
      "ዓት": 476,
      "ምር": 477,
      "መል": 478,
      "ታዊ": 479,
      "መሰ": 480,
      "ኣሎ": 481,
      "ኣን": 482,
      "ተር": 483,
      "ዞባ": 484,
      "ዓመት": 485,
      "ህዝ": 486,
      "ዓለ": 487,
      "ኣት": 488,
      "ኣገ": 489,
      "ዕሊ": 490,
      "መጽ": 491,
      "ነገ": 492,
      "ፍር": 493,
      "ተወ": 494,
      "ኾነ": 495,
      "ናን": 496,
      "ላይ": 497,
      "ኸውን": 498,
      "ሮም": 499,
      "ሓን": 500,
      "እየ": 501,
      "ምድ": 502,
      "ኣም": 503,
      "ውድ": 504,
      "ኤል": 505,
      "ዘለዎ": 506,
      "ተይ": 507,
      "ፈል": 508,
      "ኩም": 509,
      "ትምህ": 510,
      "201": 511,
      "ንታ": 512,
      "ቅድ": 513,
      "ዕባ": 514,
      "ሰር": 515,
      "ምል": 516,
      "ናት": 517,
      "ለን": 518,
      "ብዙ": 519,
      "ዝነበረ": 520,
      "ምዃኑ": 521,
      "ውያን": 522,
      "00": 523,
      "እዮም": 524,
      "ከምዝ": 525,
      "ስም": 526,
      "ሰን": 527,
      "ትሕ": 528,
      "መድ": 529,
      "ብሉ": 530,
      "ርያ": 531,
      "ነን": 532,
      "ኣፍ": 533,
      "ብዝ": 534,
      "በይ": 535,
      "ደረ": 536,
      "ላለ": 537,
      "ኣር": 538,
      "እዋን": 539,
      "ምሕ": 540,
      "ክሳብ": 541,
      "ተሓ": 542,
      "ባቢ": 543,
      "እቶም": 544,
      "ንን": 545,
      "ኽን": 546,
      "ታትን": 547,
      "ግና": 548,
      "ድር": 549,
      "ማእ": 550,
      "ኣመ": 551,
      "ሃገር": 552,
      "ልን": 553,
      "ስን": 554,
      "ሰባት": 555,
      "ገዛ": 556,
      "ሓት": 557,
      "ጥራይ": 558,
      "እንታይ": 559,
      "ኣቶ": 560,
      "ክር": 561,
      "ክብ": 562,
      "ልዕሊ": 563,
      "ባል": 564,
      "ማዕ": 565,
      "ኣነ": 566,
      "ከባቢ": 567,
      "መይ": 568,
      "ገለ": 569,
      "ይቕ": 570,
      "ልና": 571,
      "መዓል": 572,
      "በረ": 573,
      "ማት": 574,
      "ብዛ": 575,
      "ክፍ": 576,
      "መደ": 577,
      "ትምህርቲ": 578,
      "ስት": 579,
      "ደን": 580,
      "ኣብቲ": 581,
      "ጸን": 582,
      "እያ": 583,
      "መራ": 584,
      "ብን": 585,
      "ርን": 586,
      "ረን": 587,
      "ባዕ": 588,
      "ኸኣ": 589,
      "ከምኡ": 590,
      "ሓይ": 591,
      "ሃብ": 592,
      "ድን": 593,
      "ገብረ": 594,
      "ባይ": 595,
      "ዳይ": 596,
      "እተ": 597,
      "ማን": 598,
      "ኖም": 599,
      "በት": 600,
      "ዝወ": 601,
      "ኢሉ": 602,
      "እግ": 603,
      "ዕድ": 604,
      "ስራሕ": 605,
      "ዀነ": 606,
      "ብዘይ": 607,
      "ቦታ": 608,
      "ገዲ": 609,
      "ዓለም": 610,
      "በለ": 611,
      "ተጻ": 612,
      "ክለ": 613,
      "እንከ": 614,
      "19": 615,
      "ገጽ": 616,
      "ኮይኑ": 617,
      "ስር": 618,
      "ዝተፈ": 619,
      "ወዲ": 620,
      "ርከብ": 621,
      "ምዕ": 622,
      "ተስ": 623,
      "ነይሩ": 624,
      "ህዝቢ": 625,
      "ዮን": 626,
      "ስለዝ": 627,
      "ፍል": 628,
      "ገን": 629,
      "ረኽ": 630,
      "ዎም": 631,
      "ረጋ": 632,
      "ኩሉ": 633,
      "ከተማ": 634,
      "ብራ": 635,
      "ቅድሚ": 636,
      "ኣካ": 637,
      "ነዚ": 638,
      "ክልተ": 639,
      "ኣል": 640,
      "ተቐ": 641,
      "ካልእ": 642,
      "ደቂ": 643,
      "ስነ": 644,
      "ብሓ": 645,
      "ዘን": 646,
      "ማእከ": 647,
      "ውሽ": 648,
      "ወር": 649,
      "ዳር": 650,
      "ድራ": 651,
      "ኣብዚ": 652,
      "ሃል": 653,
      "ኢት": 654,
      "ሰለ": 655,
      "ነገር": 656,
      "ደረጃ": 657,
      "ፈት": 658,
      "መንግ": 659,
      "ባብ": 660,
      "ወታ": 661,
      "ኢና": 662,
      "ብዛዕባ": 663,
      "ስተ": 664,
      "ገል": 665,
      "10": 666,
      "ህይ": 667,
      "ነብ": 668,
      "ዝብል": 669,
      "ጋንታ": 670,
      "ሕጂ": 671,
      "ኣዝ": 672,
      "ማሕ": 673,
      "ግባ": 674,
      "ሕማ": 675,
      "በዓል": 676,
      "እሞ": 677,
      "ጠን": 678,
      "መሓ": 679,
      "ኣምላ": 680,
      "ሰላ": 681,
      "ኣየ": 682,
      "12": 683,
      "ቦም": 684,
      "እሰ": 685,
      "ደል": 686,
      "ጥም": 687,
      "ካየ": 688,
      "ብዙሕ": 689,
      "ሰል": 690,
      "ደር": 691,
      "ገሊ": 692,
      "ወም": 693,
      "ይን": 694,
      "ወረ": 695,
      "ንግ": 696,
      "ተስፋ": 697,
      "ተኸ": 698,
      "ደኣ": 699,
      "መጻ": 700,
      "ግብ": 701,
      "ዞም": 702,
      "ዊት": 703,
      "ሓድ": 704,
      "ውድድር": 705,
      "ተሰ": 706,
      "እንተሎ": 707,
      "ንኽ": 708,
      "ቀዳ": 709,
      "ሓፍ": 710,
      "ዝኣ": 711,
      "ዝቃ": 712,
      "መንእሰ": 713,
      "ዝተፈላለ": 714,
      "ኣምላኽ": 715,
      "ሓበ": 716,
      "ልካ": 717,
      "ደይ": 718,
      "ስል": 719,
      "ፍቕ": 720,
      "ንሱ": 721,
      "ዝበለ": 722,
      "ታን": 723,
      "ዘር": 724,
      "ይሕ": 725,
      "ፍርዲ": 726,
      "ላን": 727,
      "ውጽ": 728,
      "ልም": 729,
      "ዝኾነ": 730,
      "ደም": 731,
      "ዝቃወም": 732,
      "ዝሓለ": 733,
      "ማለት": 734,
      "ሓንቲ": 735,
      "ብኣ": 736,
      "ጥን": 737,
      "ይድ": 738,
      "ጽሕ": 739,
      "ይቕረብ": 740,
      "ጽን": 741,
      "እስ": 742,
      "ወዳ": 743,
      "በብ": 744,
      "ርሕ": 745,
      "ግር": 746,
      "ጥዕ": 747,
      "ነፍ": 748,
      "ምኽን": 749,
      "ኹም": 750,
      "መግ": 751,
      "ተዓ": 752,
      "ገይ": 753,
      "ሃይ": 754,
      "ዘብ": 755,
      "ኹን": 756,
      "ሃን": 757,
      "መዓልቲ": 758,
      "ነበረ": 759,
      "ነታ": 760,
      "ዝር": 761,
      "ኦት": 762,
      "ቃል": 763,
      "ዳን": 764,
      "ሪካ": 765,
      "ጸወታ": 766,
      "ገም": 767,
      "ተራ": 768,
      "ሳዕ": 769,
      "ጥቃ": 770,
      "ኣሕ": 771,
      "ሎሚ": 772,
      "ሳይ": 773,
      "ዝያ": 774,
      "ልዑ": 775,
      "ኣቦ": 776,
      "ተረ": 777,
      "ቡቕ": 778,
      "ነታት": 779,
      "ድም": 780,
      "ባዊ": 781,
      "ጽል": 782,
      "ኣባ": 783,
      "15": 784,
      "ተኣ": 785,
      "ጻዕ": 786,
      "ድል": 787,
      "ሓበሬ": 788,
      "በዚ": 789,
      "ናዊ": 790,
      "ተባ": 791,
      "ርና": 792,
      "ዕል": 793,
      "ወል": 794,
      "በሉ": 795,
      "ምም": 796,
      "ባን": 797,
      "ዓቢ": 798,
      "ዘየ": 799,
      "ሉእ": 800,
      "ሃገራዊ": 801,
      "ፍቲ": 802,
      "እምበር": 803,
      "ዝን": 804,
      "ብፍ": 805,
      "በቲ": 806,
      "እዛ": 807,
      "ብቕ": 808,
      "ራን": 809,
      "ጽቡቕ": 810,
      "መረ": 811,
      "ፈለ": 812,
      "ወለ": 813,
      "ዕላ": 814,
      "መበል": 815,
      "ማእከል": 816,
      "ሓላ": 817,
      "ሕር": 818,
      "ንዝ": 819,
      "ሃገራት": 820,
      "ልግ": 821,
      "ዓዲ": 822,
      "ከምዚ": 823,
      "ኣይት": 824,
      "ኻል": 825,
      "ነቶም": 826,
      "ሚኒ": 827,
      "መዓ": 828,
      "ሎት": 829,
      "ዕን": 830,
      "ባሕሪ": 831,
      "እኳ": 832,
      "ምት": 833,
      "ዘለዉ": 834,
      "ብቐ": 835,
      "ብሩ": 836,
      "ዓይነት": 837,
      "ይኹን": 838,
      "ሉን": 839,
      "የሆ": 840,
      "ሓበሬታ": 841,
      "ህይወት": 842,
      "ኢኻ": 843,
      "11": 844,
      "ዳስ": 845,
      "ክእ": 846,
      "ኣስመራ": 847,
      "ግባር": 848,
      "ዝሓለፈ": 849,
      "ንኡ": 850,
      "ገብር": 851,
      "ደት": 852,
      "ነትን": 853,
      "።\"": 854,
      "ካልኦት": 855,
      "ሳን": 856,
      "?\"": 857,
      "የሆዋ": 858,
      "ትር": 859,
      "ዝሕ": 860,
      "ሓያ": 861,
      "ጣን": 862,
      "ተፈ": 863,
      "ትዮ": 864,
      "ህን": 865,
      "ምጽ": 866,
      "ነጥ": 867,
      "30": 868,
      "ዓን": 869,
      "ዕቲ": 870,
      "ሰም": 871,
      "ምቲ": 872,
      "ጀሚ": 873,
      "ክኸውን": 874,
      "ዝዀነ": 875,
      "ክስ": 876,
      "ናይቲ": 877,
      "ደገ": 878,
      "ማዊ": 879,
      "ህል": 880,
      "ገጸ": 881,
      "ዝኸ": 882,
      "ምና": 883,
      "ላዊ": 884,
      "ጽሪ": 885,
      "ቱን": 886,
      "ሕቶ": 887,
      "ኣመሪካ": 888,
      "ወጻ": 889,
      "ፈር": 890,
      "ስለዝበ": 891,
      "ናጽ": 892,
      "አን": 893,
      "ዶም": 894,
      "ስለዚ": 895,
      "ክዕ": 896,
      "ረባ": 897,
      "ርግ": 898,
      "ፍለ": 899,
      "ይኽእል": 900,
      "ከተ": 901,
      "መት": 902,
      "ንጥ": 903,
      "ኮነ": 904,
      "ዓቕ": 905,
      "ኣገልግ": 906,
      "14": 907,
      "ይና": 908,
      "ተባሂ": 909,
      "ዘተ": 910,
      "ፍቕሪ": 911,
      "ዝግ": 912,
      "ንኣ": 913,
      "ንሳ": 914,
      "መንግስቲ": 915,
      "ተዋ": 916,
      "ሬት": 917,
      "ኰይኑ": 918,
      "ራብ": 919,
      "ዝቐ": 920,
      "ልያ": 921,
      "መወዳ": 922,
      "ዓመታት": 923,
      "ሽን": 924,
      "ኣው": 925,
      "ትካ": 926,
      "13": 927,
      "ርብ": 928,
      "ታሪ": 929,
      "ረኸ": 930,
      "ስድራ": 931,
      "ኣዝዩ": 932,
      "ኢላ": 933,
      "ሓር": 934,
      "ሕን": 935,
      "ሓቢ": 936,
      "ኣጋ": 937,
      "ጻር": 938,
      "እንከሎ": 939,
      "ጥዕና": 940,
      "ምው": 941,
      "ዕብ": 942,
      "ጸጋ": 943,
      "ክለብ": 944,
      "ጉዳይ": 945,
      "ንሕ": 946,
      "ካየድ": 947,
      "ተኽ": 948,
      "ዘላ": 949,
      "ዕለ": 950,
      "ስፖ": 951,
      "ኸም": 952,
      "ደቀ": 953,
      "18": 954,
      "ኢዩ": 955,
      "ኣይኮ": 956,
      "ሳል": 957,
      "ረጋገጸ": 958,
      "ወከ": 959,
      "ዝጸን": 960,
      "በን": 961,
      "ሰለስተ": 962,
      "ሄር": 963,
      "ንዓ": 964,
      "ካልኣይ": 965,
      "ብዙሓት": 966,
      "ሶም": 967,
      "ንኡስ": 968,
      "ጽሑ": 969,
      "ደና": 970,
      "16": 971,
      "መወዳእታ": 972,
      "በይቲ": 973,
      "ሸቶ": 974,
      "ሞት": 975,
      "ሰነ": 976,
      "ግጥም": 977,
      "ውሽጢ": 978,
      "ምምሕ": 979,
      "ፈተ": 980,
      "ሮን": 981,
      "ኣቢ": 982,
      "እግዚ": 983,
      "ካብቲ": 984,
      "17": 985,
      "ታሕ": 986,
      "..": 987,
      "ሕብረ": 988,
      "ብጻ": 989,
      "ወን": 990,
      "ጸላ": 991,
      "ኣለዎ": 992,
      "ርድ": 993,
      "መንጎ": 994,
      "መሰረት": 995,
      "ዓብ": 996,
      "ዝርከብ": 997,
      "የን": 998,
      "ከመይ": 999,
      "ምሉእ": 1000,
      "ቅዱ": 1001,
      "ሓይሊ": 1002,
      "ኣይኰ": 1003,
      "መጽሓፍ": 1004,
      "ጥቀ": 1005,
      "ኛታት": 1006,
      "ብወ": 1007,
      "ዝኽእል": 1008,
      "መሳ": 1009,
      "ርካ": 1010,
      "መጽእ": 1011,
      "መደብ": 1012,
      "ተሳ": 1013,
      "ብፍላይ": 1014,
      "ከለ": 1015,
      "ዝነበሩ": 1016,
      "ፈልጥ": 1017,
      "ኣድ": 1018,
      "እንተዘይ": 1019,
      "ሳሲ": 1020,
      "ዜና": 1021,
      "ፍን": 1022,
      "ተጠ": 1023,
      "ራዊት": 1024,
      "ኣገልግሎት": 1025,
      "ሕጊ": 1026,
      "ሞም": 1027,
      "ያዊ": 1028,
      "ስተር": 1029,
      "ባሕ": 1030,
      "ብሪ": 1031,
      "ምለ": 1032,
      "ሚል": 1033,
      "ደቡ": 1034,
      "ሙን": 1035,
      "ተባሂሉ": 1036,
      "ሕል": 1037,
      "ደለ": 1038,
      "ሓለ": 1039,
      "ገር": 1040,
      "ሽዑ": 1041,
      "ስትሪ": 1042,
      "ግባእ": 1043,
      "ረስ": 1044,
      "ኣማ": 1045,
      "ከሎ": 1046,
      "ተበ": 1047,
      "ካይ": 1048,
      "ቀን": 1049,
      "ሰይ": 1050,
      "ኰነ": 1051,
      "መለ": 1052,
      "ዝሰ": 1053,
      "ዕሶ": 1054,
      "ካን": 1055,
      "ድዩ": 1056,
      "ከምቲ": 1057,
      "ንስትዮ": 1058,
      "ደሊ": 1059,
      "ምኽ": 1060,
      "ሳስ": 1061,
      "ጥር": 1062,
      "ዘለዎም": 1063,
      "ኣኽ": 1064,
      "ጸኒ": 1065,
      "ተሃ": 1066,
      "ድሪ": 1067,
      "ሕማም": 1068,
      "ተጋ": 1069,
      "ምህላ": 1070,
      "ሃሮ": 1071,
      "ትሕቲ": 1072,
      "ንና": 1073,
      "ምፍ": 1074,
      "ገሊጹ": 1075,
      "መንእሰያት": 1076,
      "ዝብ": 1077,
      "መሬት": 1078,
      "ዝተኻ": 1079,
      "ኣረ": 1080,
      "ዝስ": 1081,
      "ወርሒ": 1082,
      "ሰዓት": 1083,
      "ግቡ": 1084,
      "ምልከ": 1085,
      "ሓድሽ": 1086,
      "ብምዃ": 1087,
      "ወጻኢ": 1088,
      "በየ": 1089,
      "ብሮ": 1090,
      "ተጸ": 1091,
      "ገድ": 1092,
      "ይረጋገጸ": 1093,
      "ክፍሊ": 1094,
      "መጋ": 1095,
      "ዝፈ": 1096,
      "ዕለት": 1097,
      "ሚካ": 1098,
      "ክብል": 1099,
      "ሳኺ": 1100,
      "ተጻዋ": 1101,
      "ናጽነት": 1102,
      "ዋላ": 1103,
      "መንፈ": 1104,
      "ዘመ": 1105,
      "ሱስ": 1106,
      "እግዚኣብ": 1107,
      "25": 1108,
      "እንግ": 1109,
      "ሽተ": 1110,
      "ኣያ": 1111,
      "ንጉ": 1112,
      "መሪ": 1113,
      "ንጥፈ": 1114,
      "ቀዳማይ": 1115,
      "ምእን": 1116,
      "ቐት": 1117,
      "ናቕ": 1118,
      "ርያም": 1119,
      "ምድሪ": 1120,
      "ዝያዳ": 1121,
      "የደ": 1122,
      "ፋል": 1123,
      "ዘለዋ": 1124,
      "ርከቡ": 1125,
      "ትና": 1126,
      "ኣፍሪ": 1127,
      "ስምዒ": 1128,
      "ስታ": 1129,
      "ኣይኮነን": 1130,
      "ዝው": 1131,
      "ኣቐ": 1132,
      "ኣለዉ": 1133,
      "ማር": 1134,
      "ሓሙ": 1135,
      "ዝዓ": 1136,
      "ልዑል": 1137,
      "ከብ": 1138,
      "ኣደ": 1139,
      "ኣባላት": 1140,
      "ፍሉ": 1141,
      "ብምባል": 1142,
      "ገንዘብ": 1143,
      "ዝተባህ": 1144,
      "ምፕ": 1145,
      "ተት": 1146,
      "ተወሳኺ": 1147,
      "ምንታይ": 1148,
      "እግሪ": 1149,
      "ወስ": 1150,
      "ራር": 1151,
      "ብና": 1152,
      "ኩነታት": 1153,
      "ውል": 1154,
      "ወላ": 1155,
      "ዝመ": 1156,
      "ኢለ": 1157,
      "ተዛ": 1158,
      "ኣፍሪቃ": 1159,
      "ወረስቲ": 1160,
      "ቅር": 1161,
      "እንተኾነ": 1162,
      "ሚኒስትሪ": 1163,
      "ምባል": 1164,
      "ህብ": 1165,
      "ፍረ": 1166,
      "ዝገበ": 1167,
      "ሽሕ": 1168,
      "ቢት": 1169,
      "እስራ": 1170,
      "ዋት": 1171,
      "ኣብነት": 1172,
      "መገዲ": 1173,
      "ዝተፈላለየ": 1174,
      "መጠን": 1175,
      "ሕጋ": 1176,
      "ዕድመ": 1177,
      "ምኽንያ": 1178,
      "ብድ": 1179,
      "ፍለጥ": 1180,
      "ሓስ": 1181,
      "ተጻወት": 1182,
      "ከምዘሎ": 1183,
      "ለወ": 1184,
      "ሒዙ": 1185,
      "ይግ": 1186,
      "200": 1187,
      "ላል": 1188,
      "ቀሪ": 1189,
      "ምእንቲ": 1190,
      "!\"": 1191,
      "ነዊ": 1192,
      "እንግሊ": 1193,
      "22": 1194,
      "ዝኾ": 1195,
      "ዋጋ": 1196,
      "ዓወት": 1197,
      "ብኸ": 1198,
      "ቀል": 1199,
      "ጸገም": 1200,
      "ናል": 1201,
      "ወሲ": 1202,
      "ቅዱስ": 1203,
      "ዝነ": 1204,
      "ተሪ": 1205,
      "ግቡእ": 1206,
      "ነገራት": 1207,
      "ጓል": 1208,
      "ቤተ": 1209,
      "ናቕፋ": 1210,
      "ኣላ": 1211,
      "ብረት": 1212,
      "ፖሊ": 1213,
      "ፍት": 1214,
      "ምኽንያት": 1215,
      "የሱስ": 1216,
      "እምሮ": 1217,
      "ገዝ": 1218,
      "ሰራዊት": 1219,
      "ተጻዋታይ": 1220,
      "እኽ": 1221,
      "ንዓይ": 1222,
      "ለቲ": 1223,
      "ንስኻ": 1224,
      "ከምዘይ": 1225,
      "ምዃኖም": 1226,
      "ኽእሉ": 1227,
      "ፍልጠ": 1228,
      "ኣይነበ": 1229,
      "ብዘይካ": 1230,
      "ሞን": 1231,
      "ሚካኤል": 1232,
      "ተደ": 1233,
      "ዝተኻየደ": 1234,
      "ሊግ": 1235,
      "ቡር": 1236,
      "ማርያም": 1237,
      "ዝሃ": 1238,
      "ለው": 1239,
      "ጠቕ": 1240,
      "ሰት": 1241,
      "እዞም": 1242,
      "ረበ": 1243,
      "ሓሳብ": 1244,
      "ዝጊ": 1245,
      "ጉዳ": 1246,
      "ሓሳ": 1247,
      "መጽና": 1248,
      "ጀመር": 1249,
      "እግዚኣብሄር": 1250,
      "መንገዲ": 1251,
      "ህጻ": 1252,
      "ውሕ": 1253,
      "ውሳ": 1254,
      "ነዊሕ": 1255,
      "እተን": 1256,
      "ምግ": 1257,
      "ጅለ": 1258,
      "ኣይኰነን": 1259,
      "ኡን": 1260,
      "ክረ": 1261,
      "ፈሻ": 1262,
      "ጣሚ": 1263,
      "ንዕ": 1264,
      "ጾም": 1265,
      "ሰላም": 1266,
      "ዝተፈላለዩ": 1267,
      "ረዚ": 1268,
      "ዓው": 1269,
      "ያስ": 1270,
      "ስፖርት": 1271,
      "ዝረ": 1272,
      "ኣገባብ": 1273,
      "ህሉ": 1274,
      "ቀንዲ": 1275,
      "ጽር": 1276,
      "ሳት": 1277,
      "እየን": 1278,
      "ኣንጻር": 1279,
      "ፎም": 1280,
      "ከቢ": 1281,
      "ንቋ": 1282,
      "ኣዕ": 1283,
      "እስራኤል": 1284,
      "ኣዋ": 1285,
      "ኣቐዲ": 1286,
      "ኣቕ": 1287,
      "ጀሚሩ": 1288,
      "ክሕ": 1289,
      "መግቢ": 1290,
      "ብሰን": 1291,
      "ኣርባዕ": 1292,
      "እንከለ": 1293,
      "ለጽ": 1294,
      "ባሩ": 1295,
      "ኣእምሮ": 1296,
      "ስለዝሞ": 1297,
      "ዳት": 1298,
      "ቨር": 1299,
      "ውጽኢት": 1300,
      "ሚልዮን": 1301,
      "ዕዳ": 1302,
      "ወዘተ": 1303,
      "ምምሕዳር": 1304,
      "ቁጽሪ": 1305,
      "ቅስ": 1306,
      "ረድ": 1307,
      "ምኽንያቱ": 1308,
      "ንጥፈታት": 1309,
      "ጀር": 1310,
      "ኣብር": 1311,
      "ቐን": 1312,
      "ወይዘ": 1313,
      "ፍጻ": 1314,
      "ሓዳስ": 1315,
      "ከኣል": 1316,
      "ኣስታት": 1317,
      "ስእ": 1318,
      "ተጻወትቲ": 1319,
      "ጽሕፈት": 1320,
      "ልቢ": 1321,
      "መልሲ": 1322,
      "ኣሰ": 1323,
      "ገና": 1324,
      "ኻብ": 1325,
      "መንእሰይ": 1326,
      "ኢሎም": 1327,
      "ሕርሻ": 1328,
      "ዘጋ": 1329,
      "ደቡብ": 1330,
      "ንኸ": 1331,
      "ሓቂ": 1332,
      "ገይሩ": 1333,
      "ቤተይ": 1334,
      "21": 1335,
      "ዝኸውን": 1336,
      "ዘይብሉ": 1337,
      "ሂወት": 1338,
      "ሓል": 1339,
      "ንእ": 1340,
      "ሕብረተ": 1341,
      "ማሊ": 1342,
      "ድና": 1343,
      "ኣእ": 1344,
      "ስያ": 1345,
      "ዝኽ": 1346,
      "ዳም": 1347,
      "ንመ": 1348,
      "ርክ": 1349,
      "ወይዘሮ": 1350,
      "ሪት": 1351,
      "ኣካል": 1352,
      "ኣሰል": 1353,
      "ክታ": 1354,
      "ኵሉ": 1355,
      "ኣዘ": 1356,
      "ከውን": 1357,
      "የት": 1358,
      "ዜጋ": 1359,
      "ምቕ": 1360,
      "ቀት": 1361,
      "ኣብታ": 1362,
      "ዘረባ": 1363,
      "ነጥቢ": 1364,
      "ኢን": 1365,
      "ዓተ": 1366,
      "ግደ": 1367,
      "ርእዮ": 1368,
      "ዝነበረት": 1369,
      "ኣርባዕተ": 1370,
      "ስና": 1371,
      "ቀሳ": 1372,
      "ኣገዳ": 1373,
      "ዓበይቲ": 1374,
      "ረኺ": 1375,
      "ካር": 1376,
      "ዋህ": 1377,
      "ሃም": 1378,
      "ስርዓት": 1379,
      "መስል": 1380,
      "ዝጸንሐ": 1381,
      "ሰርሕ": 1382,
      "ዕላማ": 1383,
      "ዕድል": 1384,
      "ታሪኽ": 1385,
      "ሲቲ": 1386,
      "ፕረዚ": 1387,
      "ዝተሰ": 1388,
      "ማሕበር": 1389,
      "ጽም": 1390,
      "ስቶ": 1391,
      "ላዕሊ": 1392,
      "ፕረዚደን": 1393,
      "ቓል": 1394,
      "ስለዝበላ": 1395,
      "ውዕል": 1396,
      "ክቕ": 1397,
      "መምህ": 1398,
      "ከር": 1399,
      "ምሳ": 1400,
      "ትካል": 1401,
      "ኣበር": 1402,
      "መጺ": 1403,
      "ምዕባ": 1404,
      "ገበ": 1405,
      "ሓደጋ": 1406,
      "ሰዓ": 1407,
      "መደባት": 1408,
      "ጋዜ": 1409,
      "ድሕ": 1410,
      "እንስ": 1411,
      "ይኖም": 1412,
      "ምዝ": 1413,
      "ኣበ": 1414,
      "እዋ": 1415,
      "ዉን": 1416,
      "24": 1417,
      "ተኽለ": 1418,
      "ግም": 1419,
      "ብርሃን": 1420,
      "ማሕበ": 1421,
      "ኣህ": 1422,
      "ዘይኮነ": 1423,
      "ሰሜ": 1424,
      "ተቓ": 1425,
      "ብለ": 1426,
      "ኪና": 1427,
      "ኢልካ": 1428,
      "ጉጅለ": 1429,
      "ቅል": 1430,
      "ዝለ": 1431,
      "መስርሕ": 1432,
      "ወተሃ": 1433,
      "ሖም": 1434,
      "ኣጋጣሚ": 1435,
      "ትማሊ": 1436,
      "ብሎ": 1437,
      "ኩን": 1438,
      "ብዝሒ": 1439,
      "ከነ": 1440,
      "ይኸውን": 1441,
      "ተመሳ": 1442,
      "ቕን": 1443,
      "ግጋ": 1444,
      "ይቲ": 1445,
      "ገዛእ": 1446,
      "ፈን": 1447,
      "በሎ": 1448,
      "ፕረዚደንት": 1449,
      "ወልደ": 1450,
      "ክልቲ": 1451,
      "ብላ": 1452,
      "ብኸመይ": 1453,
      "ሓሊ": 1454,
      "ወከፍ": 1455,
      "ምበር": 1456,
      "ከምዘ": 1457,
      "ውሮ": 1458,
      "ጣኒ": 1459,
      "ጸብጻ": 1460,
      "ኢድ": 1461,
      "ርእይ": 1462,
      "ሳሊ": 1463,
      "ግራ": 1464,
      "ማህ": 1465,
      "ብስ": 1466,
      "ከላ": 1467,
      "ዝም": 1468,
      "ዎን": 1469,
      "ታል": 1470,
      "ክኢላ": 1471,
      "ሞያ": 1472,
      "ሳተ": 1473,
      "ጽዕ": 1474,
      "ተኻ": 1475,
      "ጸል": 1476,
      "ክፋል": 1477,
      "ተላ": 1478,
      "እንግሊዝ": 1479,
      "ከቢድ": 1480,
      "ጽዋ": 1481,
      "መላ": 1482,
      "ፈለማ": 1483,
      "ቶን": 1484,
      "በላ": 1485,
      "ዕዞ": 1486,
      "ገረ": 1487,
      "ወሰ": 1488,
      "ነፍሲ": 1489,
      "ይብል": 1490,
      "ማም": 1491,
      "ቀይሕ": 1492,
      "ምዲ": 1493,
      "እንስሳ": 1494,
      "ነቱ": 1495,
      "ሜዳ": 1496,
      "ኤውሮ": 1497,
      "ጀመረ": 1498,
      "ናብቲ": 1499,
      "23": 1500,
      "ዝጠ": 1501,
      "ትምህር": 1502,
      "26": 1503,
      "2014": 1504,
      "ዘለና": 1505,
      "ደብ": 1506,
      "ርሒ": 1507,
      "ኣካላት": 1508,
      "ንሕና": 1509,
      "ጸገ": 1510,
      "ዖም": 1511,
      "ናይት": 1512,
      "ግል": 1513,
      "ዲኡ": 1514,
      "ብሰንኪ": 1515,
      "ብምን": 1516,
      "ዋንጫ": 1517,
      "ዝምልከ": 1518,
      "ኣሉ": 1519,
      "መንግስ": 1520,
      "2015": 1521,
      "ዀኑ": 1522,
      "ሓቢሩ": 1523,
      "እንዳ": 1524,
      "ውር": 1525,
      "ዓቕሚ": 1526,
      "ወኪ": 1527,
      "ካዊ": 1528,
      "ዝኣመሰ": 1529,
      "27": 1530,
      "ዝቕ": 1531,
      "መርዓ": 1532,
      "ኤውሮጳ": 1533,
      "የለን": 1534,
      "ድምጺ": 1535,
      "ሕጋዊ": 1536,
      "ቋንቋ": 1537,
      "ካብቶም": 1538,
      "ከረ": 1539,
      "ኣለኹ": 1540,
      "ግእ": 1541,
      "ዘይት": 1542,
      "ጻእ": 1543,
      "ሃይለ": 1544,
      "እዚኣ": 1545,
      "ጥበ": 1546,
      "ንጉስ": 1547,
      "ዕረ": 1548,
      "ደራ": 1549,
      "ዋይ": 1550,
      "ስጋ": 1551,
      "ጻዕሪ": 1552,
      "ዓር": 1553,
      "ዝተባህለ": 1554,
      "ውሑ": 1555,
      "መሊ": 1556,
      "ሕክ": 1557,
      "ገልጽ": 1558,
      "መሓመድ": 1559,
      "ሰብኣይ": 1560,
      "መጥቃ": 1561,
      "28": 1562,
      "ተል": 1563,
      "በለት": 1564,
      "ንካ": 1565,
      "ሻምፕ": 1566,
      "ትካላት": 1567,
      "ህላ": 1568,
      "ሃንስ": 1569,
      "ኹሉ": 1570,
      "ምክል": 1571,
      "ትሕዝ": 1572,
      "ሓላፊ": 1573,
      "ክተር": 1574,
      "ንብረት": 1575,
      "ጽእ": 1576,
      "ተመሳሳሊ": 1577,
      "ኣንስትዮ": 1578,
      "ጥሪ": 1579,
      "ዓይኒ": 1580,
      "ርእሲ": 1581,
      "ግጥ": 1582,
      "ኣብያ": 1583,
      "ኣሕዋ": 1584,
      "ይነ": 1585,
      "ጠመ": 1586,
      "50": 1587,
      "ኣተ": 1588,
      "ኢትዮ": 1589,
      "ረታ": 1590,
      "ንቕ": 1591,
      "ዳእ": 1592,
      "ሸት": 1593,
      "ሕት": 1594,
      "ድኣ": 1595,
      "ሩን": 1596,
      "ፎን": 1597,
      "ጎስ": 1598,
      "ልታት": 1599,
      "ኣብኡ": 1600,
      "ላስ": 1601,
      "ዝካየድ": 1602,
      "ክንደይ": 1603,
      "ብርሃ": 1604,
      "ቀሳቐ": 1605,
      "ፕሮ": 1606,
      "ሰራሕ": 1607,
      "ይስ": 1608,
      "እምነት": 1609,
      "ማል": 1610,
      "ስልጣን": 1611,
      "ፍሉይ": 1612,
      "ቡን": 1613,
      "ኩዕሶ": 1614,
      "መድረኽ": 1615,
      "ዛረብ": 1616,
      "ኣገዳሲ": 1617,
      "ብመሰረት": 1618,
      "ሳዊ": 1619,
      "ስለዘይ": 1620,
      "ህዝባዊ": 1621,
      "ኢትዮጵ": 1622,
      "ቦት": 1623,
      "ብሉን": 1624,
      "ኣሰልጣኒ": 1625,
      "ጸር": 1626,
      "ክነ": 1627,
      "ኣብያተ": 1628,
      "ይት": 1629,
      "ለካ": 1630,
      "ደው": 1631,
      "በሃል": 1632,
      "ኣዊ": 1633,
      "ሃር": 1634,
      "ጸላኢ": 1635,
      "መጽናዕቲ": 1636,
      "ሓያል": 1637,
      "ተባዕ": 1638,
      "የር": 1639,
      "ፈልጦ": 1640,
      "ጠር": 1641,
      "ንብ": 1642,
      "ፋት": 1643,
      "መንፈስ": 1644,
      "ያል": 1645,
      "ክኸ": 1646,
      "ተለ": 1647,
      "ደስ": 1648,
      "ዓሳ": 1649,
      "መጸ": 1650,
      "ኣተሓ": 1651,
      "ሊጡ": 1652,
      "ሓጺ": 1653,
      "ክወ": 1654,
      "ሓተ": 1655,
      "ፍጻመ": 1656,
      "ሰፊ": 1657,
      "ዝምድ": 1658,
      "ንኣብነት": 1659,
      "ሓሙሽተ": 1660,
      "ክንዲ": 1661,
      "ዛንታ": 1662,
      "ድሮ": 1663,
      "ቅን": 1664,
      "መግለ": 1665,
      "ተገ": 1666,
      "መጥቃዕቲ": 1667,
      "ልዓ": 1668,
      "ብቕዓት": 1669,
      "ጋዜጣ": 1670,
      "ታቶም": 1671,
      "ይታ": 1672,
      "ጠና": 1673,
      "ጻሊ": 1674,
      "ማኖ": 1675,
      "ዝበሃል": 1676,
      "ቃን": 1677,
      "ውድድ": 1678,
      "ፖለቲ": 1679,
      "ኒት": 1680,
      "ህይወ": 1681,
      "ተኛታት": 1682,
      "ትም": 1683,
      "መቕ": 1684,
      "ርክብ": 1685,
      "ዘይኰነ": 1686,
      "ቲን": 1687,
      "ማዕረ": 1688,
      "ጥረ": 1689,
      "ተቐዳ": 1690,
      "ጽበ": 1691,
      "ድሊ": 1692,
      "ኣቱ": 1693,
      "መስዋ": 1694,
      "ግረ": 1695,
      "ምብ": 1696,
      "ኲናት": 1697,
      "ምዃንና": 1698,
      "ላዕለ": 1699,
      "ረቡ": 1700,
      "ቲት": 1701,
      "ኮማዊ": 1702,
      "ብምስ": 1703,
      "ህቦ": 1704,
      "መካ": 1705,
      "ፖሊስ": 1706,
      "ምብራ": 1707,
      "ስለምንታይ": 1708,
      "ክሳዕ": 1709,
      "ማእከላይ": 1710,
      "እወ": 1711,
      "ቅስቓ": 1712,
      "ዒን": 1713,
      "ብዕ": 1714,
      "መጀመር": 1715,
      "ኣይነበረን": 1716,
      "መኪና": 1717,
      "ወተሃደ": 1718,
      "ግንባር": 1719,
      "ክፍለ": 1720,
      "ኻን": 1721,
      "መግለጺ": 1722,
      "ጎደና": 1723,
      "በሪ": 1724,
      "ግበር": 1725,
      "ጽሑፍ": 1726,
      "መስመር": 1727,
      "ጹም": 1728,
      "ጋን": 1729,
      "መዛ": 1730,
      "ጸረ": 1731,
      "ህያ": 1732,
      "መጻኢ": 1733,
      "ስምዒት": 1734,
      "ቕቲ": 1735,
      "ከየ": 1736,
      "ስፍ": 1737,
      "በኣር": 1738,
      "ንሳቶም": 1739,
      "2013": 1740,
      "ናዮ": 1741,
      "ክሲ": 1742,
      "ፈረን": 1743,
      "ብተወሳኺ": 1744,
      "ሓሰ": 1745,
      "ብሓፈሻ": 1746,
      "ነበርቲ": 1747,
      "ብሽ": 1748,
      "ምንቅስቓ": 1749,
      "መድሃ": 1750,
      "ዘስ": 1751,
      "ይግባእ": 1752,
      "ክቶ": 1753,
      "ትሕዝቶ": 1754,
      "ጥቅ": 1755,
      "ክርስቶ": 1756,
      "ተመራ": 1757,
      "ዝምድና": 1758,
      "ሓሉ": 1759,
      "ዝገል": 1760,
      "ጥፍ": 1761,
      "ዳዊት": 1762,
      "ኤርትራውያን": 1763,
      "ዘው": 1764,
      "ግብሪ": 1765,
      "ግዝ": 1766,
      "ኣሃ": 1767,
      "ረይ": 1768,
      "ሎን": 1769,
      "ውላ": 1770,
      "ትራ": 1771,
      "ክብር": 1772,
      "ማድሪ": 1773,
      "ግጽ": 1774,
      "ዕዮ": 1775,
      "ሓዊ": 1776,
      "ሓላፍ": 1777,
      "ኣለና": 1778,
      "ዩናይት": 1779,
      "ዘካየ": 1780,
      "ርእሰ": 1781,
      "ሃይማኖ": 1782,
      "ዓትን": 1783,
      "ካብዚ": 1784,
      "ንሓደ": 1785,
      "ፊልም": 1786,
      "ክርስት": 1787,
      "ኑን": 1788,
      "199": 1789,
      "ሰሉ": 1790,
      "ረመ": 1791,
      "ተሪፉ": 1792,
      "ዅሉ": 1793,
      "ቢሩ": 1794,
      "29": 1795,
      "ምክልኻል": 1796,
      "ዳዊ": 1797,
      "መዝ": 1798,
      "እናተ": 1799,
      "ብምሕ": 1800,
      "ፍሪ": 1801,
      "ልደ": 1802,
      "ሰሚ": 1803,
      "የማ": 1804,
      "ራትን": 1805,
      "ሕማቕ": 1806,
      "ኣዩ": 1807,
      "ተመሃሮ": 1808,
      "በጺ": 1809,
      "ውዕ": 1810,
      "ኩሎም": 1811,
      "ሰሪ": 1812,
      "ማሕበራዊ": 1813,
      "ሰርተ": 1814,
      "ፍቓ": 1815,
      "ዝመጽእ": 1816,
      "ደበ": 1817,
      "ወላዲ": 1818,
      "ገብሩ": 1819,
      "ጸና": 1820,
      "ሰሙን": 1821,
      "ሓዘን": 1822,
      "ገብሮ": 1823,
      "ብግቡእ": 1824,
      "ጥሮ": 1825,
      "ውቲ": 1826,
      "ኣቢሉ": 1827,
      "ዝተረ": 1828,
      "ነይሮም": 1829,
      "ኪሎ": 1830,
      "ስልጠና": 1831,
      "ዝበዝ": 1832,
      "ክህል": 1833,
      "ተኸሳሲ": 1834,
      "ጽባሕ": 1835,
      "ኽት": 1836,
      "1ይ": 1837,
      "ቻይና": 1838,
      "ክሮ": 1839,
      "ደቅ": 1840,
      "ክርስቶስ": 1841,
      "ነበሩ": 1842,
      "ሓዳ": 1843,
      "ሕብረተሰብ": 1844,
      "ኣከ": 1845,
      "ትሮ": 1846,
      "ንላዕሊ": 1847,
      "ጺሩ": 1848,
      "ኣለዋ": 1849,
      "ኣዛ": 1850,
      "ብድሕሪ": 1851,
      "እናበል": 1852,
      "ዝፍ": 1853,
      "ውግእ": 1854,
      "ምግባር": 1855,
      "ቦን": 1856,
      "መልእኽ": 1857,
      "ንሓ": 1858,
      "ብምዃኑ": 1859,
      "ምንባሩ": 1860,
      "000": 1861,
      "ቁጠ": 1862,
      "ባህሊ": 1863,
      "ልክዕ": 1864,
      "ኮን": 1865,
      "ጻት": 1866,
      "ዝተመ": 1867,
      "ግዳ": 1868,
      "ግምት": 1869,
      "ሕቲ": 1870,
      "ኑዕ": 1871,
      "ትጽ": 1872,
      "ብወገ": 1873,
      "ቃላት": 1874,
      "ዩናይትድ": 1875,
      "ባህሪ": 1876,
      "ኣለም": 1877,
      "ካዮ": 1878,
      "ወጺ": 1879,
      "እምበኣር": 1880,
      "መዓልታት": 1881,
      "ኣህጉ": 1882,
      "ለይቲ": 1883,
      "ጥቕ": 1884,
      "ቱር": 1885,
      "የብሉን": 1886,
      "ፍልጠት": 1887,
      "ኣና": 1888,
      "ውድድራት": 1889,
      "ሓዝ": 1890,
      "ንኽእል": 1891,
      "ጸወታታት": 1892,
      "መምህር": 1893,
      "ዝነበሮ": 1894,
      "ውዒ": 1895,
      "ዝርከቡ": 1896,
      "40": 1897,
      "ስራ": 1898,
      "ዜጋታት": 1899,
      "ካብኡ": 1900,
      "ትኽእል": 1901,
      "ፍስ": 1902,
      "ዝረኸ": 1903,
      "ፍጹም": 1904,
      "ሊሉ": 1905,
      "ሰማ": 1906,
      "መሉ": 1907,
      "መሲ": 1908,
      "ዑቕ": 1909,
      "ይፍለጥ": 1910,
      "ይረጋገጸልና": 1911,
      "ማድሪድ": 1912,
      "ወትሩ": 1913,
      "ጸም": 1914,
      "ምሸት": 1915,
      "ስዒ": 1916,
      "ጨን": 1917,
      "ጽባ": 1918,
      "ርእይቶ": 1919,
      "ጥታ": 1920,
      "መና": 1921,
      "ምባ": 1922,
      "ዓሰርተ": 1923,
      "መነ": 1924,
      "ስላ": 1925,
      "ናዕ": 1926,
      "ኮም": 1927,
      "ጸኒሑ": 1928,
      "ጸት": 1929,
      "ኣየር": 1930,
      "ፈጺ": 1931,
      "ቸል": 1932,
      "ዳል": 1933,
      "ኢትዮጵያ": 1934,
      "ይተሓ": 1935,
      "ተማሃሮ": 1936,
      "ንምስ": 1937,
      "ሓው": 1938,
      "መኽ": 1939,
      "ባይታ": 1940,
      "ዕር": 1941,
      "ለውጢ": 1942,
      "ኣይከኣ": 1943,
      "መም": 1944,
      "ንምፍ": 1945,
      "ክራ": 1946,
      "ላትን": 1947,
      "ቀሪቡ": 1948,
      "ይተኣ": 1949,
      "ዕዳጋ": 1950,
      "ረክብ": 1951,
      "ዘየለ": 1952,
      "ውስ": 1953,
      "ኮሚ": 1954,
      "ጉድ": 1955,
      "ብኽ": 1956,
      "መቐ": 1957,
      "ኪዳ": 1958,
      "ኣርሰ": 1959,
      "ልቲ": 1960,
      "ዘይተ": 1961,
      "ፈራ": 1962,
      "ሜተር": 1963,
      "ኣረጋ": 1964,
      "ሰባ": 1965,
      "ላዕ": 1966,
      "ኽእሎ": 1967,
      "ጋንታታት": 1968,
      "ዘለኹ": 1969,
      "መጻምዲ": 1970,
      "ሩብ": 1971,
      "ቕር": 1972,
      "ረብሓ": 1973,
      "መጠ": 1974,
      "ክብሪ": 1975,
      "ፍርቂ": 1976,
      "ይርከብ": 1977,
      "ኮር": 1978,
      "ደቒ": 1979,
      "ኣኼ": 1980,
      "ክለባት": 1981,
      "ቶት": 1982,
      "ታቱ": 1983,
      "ቸልሲ": 1984,
      "ሃገርና": 1985,
      "ፋን": 1986,
      "ወርቂ": 1987,
      "ጥበብ": 1988,
      "ናይዚ": 1989,
      "ሸቶታት": 1990,
      "ንምር": 1991,
      "እንተዀነ": 1992,
      "ጸለ": 1993,
      "ኣሃዱ": 1994,
      "ጸባ": 1995,
      "ተስፋይ": 1996,
      "ካይድ": 1997,
      "ጓዓ": 1998,
      "መጥ": 1999,
      "ኢልና": 2000,
      "ብኡ": 2001,
      "ነይረ": 2002,
      "ብርሃነ": 2003,
      "2016": 2004,
      "ኻልእ": 2005,
      "ሂቡ": 2006,
      "ነብሩ": 2007,
      "ከምዝተ": 2008,
      "እዝ": 2009,
      "ላር": 2010,
      "ሽቶ": 2011,
      "ኾኑ": 2012,
      "ምዃና": 2013,
      "ብጽ": 2014,
      "በዓልቲ": 2015,
      "ቈልዑ": 2016,
      "ጋጋ": 2017,
      "ርእሱ": 2018,
      "ሕክምና": 2019,
      "ስጉ": 2020,
      "ስፒ": 2021,
      "ላጥ": 2022,
      "ሚኒስተር": 2023,
      "ጊት": 2024,
      "ደቀንስትዮ": 2025,
      "ኣዒን": 2026,
      "ውሳነ": 2027,
      "ሕቡ": 2028,
      "ባዕሉ": 2029,
      "ዝድ": 2030,
      "ጌጋ": 2031,
      "ኖስ": 2032,
      "መብዛ": 2033,
      "ነይራ": 2034,
      "መስዋእቲ": 2035,
      "ዛን": 2036,
      "መስለ": 2037,
      "ኵዕሶ": 2038,
      "ምእ": 2039,
      "ዓረብ": 2040,
      "ጉዕዞ": 2041,
      "ውድብ": 2042,
      "ላው": 2043,
      "ሓያሎ": 2044,
      "ዝነበራ": 2045,
      "ጸሓ": 2046,
      "ኣፈ": 2047,
      "ሌት": 2048,
      "ኣርእ": 2049,
      "ጨረታ": 2050,
      "ኢጣ": 2051,
      "ምህላዉ": 2052,
      "ብሉጽ": 2053,
      "ትግር": 2054,
      "ሳልሳይ": 2055,
      "ዘና": 2056,
      "ኣቶም": 2057,
      "ሕታ": 2058,
      "ህጻናት": 2059,
      "ይተኣረመ": 2060,
      "ከል": 2061,
      "ተነ": 2062,
      "ኸት": 2063,
      "ኣኼባ": 2064,
      "ሰርሑ": 2065,
      "መሰል": 2066,
      "ፋስ": 2067,
      "ትግርኛ": 2068,
      "ኮይና": 2069,
      "ይር": 2070,
      "ጠንቂ": 2071,
      "ዓመተ": 2072,
      "ህንጻ": 2073,
      "ምስቲ": 2074,
      "ኣርሰናል": 2075,
      "በጽ": 2076,
      "ወግ": 2077,
      "ይተኣረመለይ": 2078,
      "ጹር": 2079,
      "ድሚ": 2080,
      "ስፖር": 2081,
      "ኣበርክቶ": 2082,
      "ምስክር": 2083,
      "ዘራ": 2084,
      "ከረን": 2085,
      "ዝርከ": 2086,
      "ሩስያ": 2087,
      "ዝተዓ": 2088,
      "ፈርቲ": 2089,
      "መስከረ": 2090,
      "መጋባ": 2091,
      "ሊል": 2092,
      "ሃገራዊት": 2093,
      "ዘይን": 2094,
      "ምትሕ": 2095,
      "ሓዳር": 2096,
      "ትዕ": 2097,
      "ትብል": 2098,
      "ዘመን": 2099,
      "ወድ": 2100,
      "ሓሳባት": 2101,
      "ብካ": 2102,
      "ፕሪ": 2103,
      "ውሽጣ": 2104,
      "ትእዛ": 2105,
      "ግንቦት": 2106,
      "ክኢላታት": 2107,
      "ሓገዝ": 2108,
      "ዳርጋ": 2109,
      "ተወልደ": 2110,
      "ስዕ": 2111,
      "ሽል": 2112,
      "ክዎ": 2113,
      "ጸሓይ": 2114,
      "ጐስ": 2115,
      "ስእሊ": 2116,
      "ዓሊ": 2117,
      "ብሊ": 2118,
      "ሳእ": 2119,
      "ኣስተ": 2120,
      "ኣባል": 2121,
      "ብስም": 2122,
      "መሰለይ": 2123,
      "ሓንሳብ": 2124,
      "ላንድ": 2125,
      "ዞባታት": 2126,
      "መተ": 2127,
      "ሰማይ": 2128,
      "ብሓደ": 2129,
      "ሃበ": 2130,
      "ምዕባለ": 2131,
      "ኮይኖም": 2132,
      "ኩዎ": 2133,
      "ምንጪ": 2134,
      "ኻት": 2135,
      "ደጋ": 2136,
      "ልኡ": 2137,
      "ስለዝሞተ": 2138,
      "ክሳ": 2139,
      "ዶላር": 2140,
      "ብሓቂ": 2141,
      "ረኽቡ": 2142,
      "ሪክ": 2143,
      "ተግባር": 2144,
      "ሳዕቤ": 2145,
      "ዋና": 2146,
      "ሰዓታት": 2147,
      "ጨንፈር": 2148,
      "ጥዑ": 2149,
      "ብእ": 2150,
      "ኣንስ": 2151,
      "ዀይኑ": 2152,
      "ላጽ": 2153,
      "ፍልጥ": 2154,
      "መራሕ": 2155,
      "ጽርግ": 2156,
      "ክሰ": 2157,
      "ፋር": 2158,
      "ግለ": 2159,
      "ስኻ": 2160,
      "ፋሕ": 2161,
      "ፋይ": 2162,
      "ብምው": 2163,
      "፡\"": 2164,
      "ንኽት": 2165,
      "ቕርብ": 2166,
      "ጠፍ": 2167,
      "45": 2168,
      "ብምሉእ": 2169,
      "ሆስፒ": 2170,
      "ደብዳ": 2171,
      "ከን": 2172,
      "መጀመርታ": 2173,
      "ሰበይቲ": 2174,
      "ሱን": 2175,
      "ሓድሕ": 2176,
      "ሓራ": 2177,
      "ተጋዳ": 2178,
      "ኽቲ": 2179,
      "ብናይ": 2180,
      "መሳርሒ": 2181,
      "ተግባ": 2182,
      "ስለዝኾነ": 2183,
      "ለወለይ": 2184,
      "ምንቅስቓስ": 2185,
      "ዲን": 2186,
      "ቀጺ": 2187,
      "ገበረ": 2188,
      "ሓጺር": 2189,
      "ኮለ": 2190,
      "ቃልሲ": 2191,
      "ኤለ": 2192,
      "መዳ": 2193,
      "ኣግ": 2194,
      "ውጽኢ": 2195,
      "ኣይክእ": 2196,
      "ይተሓለወለይ": 2197,
      "ዘሕ": 2198,
      "በራ": 2199,
      "ቶምን": 2200,
      "በጽሕ": 2201,
      "ቓት": 2202,
      "ምጥ": 2203,
      "ኣበይ": 2204,
      "ዕዉ": 2205,
      "ዝዓበየ": 2206,
      "ሻይ": 2207,
      "ኢጣልያ": 2208,
      "ስካ": 2209,
      "በታ": 2210,
      "ነብር": 2211,
      "ጸሉ": 2212,
      "ንምዕ": 2213,
      "ዋሕ": 2214,
      "እንከላ": 2215,
      "ጉዳያት": 2216,
      "ደሉ": 2217,
      "ንዝተ": 2218,
      "ኹል": 2219,
      "መንደ": 2220,
      "መርቲ": 2221,
      "ወረቐት": 2222,
      "ትርጉ": 2223,
      "ምናል": 2224,
      "ኮፍ": 2225,
      "ጽርግያ": 2226,
      "ጥቃስ": 2227,
      "ክሊ": 2228,
      "መራሒ": 2229,
      "ማንቸ": 2230,
      "ቴክ": 2231,
      "ነበር": 2232,
      "ስብ": 2233,
      "ኸምዚ": 2234,
      "ምርጫ": 2235,
      "ተተ": 2236,
      "ብኣካል": 2237,
      "ብቑ": 2238,
      "ሒዝ": 2239,
      "ተመል": 2240,
      "ታትና": 2241,
      "ሰንበት": 2242,
      "ሐን": 2243,
      "ኣመል": 2244,
      "መዓስ": 2245,
      "ጀርመን": 2246,
      "ይከኣል": 2247,
      "ኣቐዲሙ": 2248,
      "ዝግበር": 2249,
      "ተመሊ": 2250,
      "ግሪ": 2251,
      "ከባቢታት": 2252,
      "ብዘ": 2253,
      "ድልየ": 2254,
      "...": 2255,
      "ስለዝበሉ": 2256,
      "ቀረባ": 2257,
      "ጅምር": 2258,
      "ኣይተ": 2259,
      "ግጥማት": 2260,
      "መልእኽቲ": 2261,
      "ነጋ": 2262,
      "ረኽቦ": 2263,
      "ቫል": 2264,
      "ላፍ": 2265,
      "ገጹ": 2266,
      "መልክዕ": 2267,
      "ምለስ": 2268,
      "ተኽእሎ": 2269,
      "ወገን": 2270,
      "ጸገማት": 2271,
      "ጐይታ": 2272,
      "ርሑ": 2273,
      "መብዛሕት": 2274,
      "ደሓን": 2275,
      "ታታ": 2276,
      "ነዛ": 2277,
      "ኪዳነ": 2278,
      "ሓረ": 2279,
      "እናበለ": 2280,
      "ሓላፍነት": 2281,
      "ጀመ": 2282,
      "ኢኹም": 2283,
      "ሙር": 2284,
      "ኣዋርሕ": 2285,
      "ነተን": 2286,
      "ቢል": 2287,
      "መስከረም": 2288,
      "ገስ": 2289,
      "ኣብርሃም": 2290,
      "ኢኺ": 2291,
      "ባህርያ": 2292,
      "ቁጽ": 2293,
      "ራል": 2294,
      "ሙሴ": 2295,
      "ቦታታት": 2296,
      "ማንቸስተር": 2297,
      "ሻምፕዮን": 2298,
      "ኢል": 2299,
      "ብሽክለ": 2300,
      "ሰበ": 2301,
      "እንድ": 2302,
      "ዮና": 2303,
      "ሚእታ": 2304,
      "ኤለክት": 2305,
      "ጎል": 2306,
      "ባእታ": 2307,
      "ክእል": 2308,
      "ኣረዲኡ": 2309,
      "ብድሆ": 2310,
      "ኣጸ": 2311,
      "ዳግ": 2312,
      "ዛብ": 2313,
      "ጻሕ": 2314,
      "ሃብተ": 2315,
      "ሃብቲ": 2316,
      "ብራህ": 2317,
      "ጋም": 2318,
      "ኦን": 2319,
      "ዕረፍቲ": 2320,
      "ፈደረ": 2321,
      "ሃለ": 2322,
      "ሳም": 2323,
      "ጸብጻብ": 2324,
      "ኣታ": 2325,
      "ሓይልታት": 2326,
      "ዛጊት": 2327,
      "ዝዀ": 2328,
      "ክያ": 2329,
      "ቃስ": 2330,
      "ኣባይ": 2331,
      "ዝተገብረ": 2332,
      "ንያ": 2333,
      "ክህ": 2334,
      "ባንያ": 2335,
      "ኣፍል": 2336,
      "ሰረ": 2337,
      "ድኻ": 2338,
      "ተመራመርቲ": 2339,
      "ሚእታዊት": 2340,
      "ምካ": 2341,
      "ሸው": 2342,
      "ተኛ": 2343,
      "ዋስ": 2344,
      "ማይን": 2345,
      "ምናልባት": 2346,
      "ዝተሓ": 2347,
      "ሰብን": 2348,
      "ክው": 2349,
      "ደልዩ": 2350,
      "ጠቓ": 2351,
      "ፈሊ": 2352,
      "ሰው": 2353,
      "እንተደኣ": 2354,
      "ንምው": 2355,
      "ፍቅ": 2356,
      "ምዕራ": 2357,
      "ተባዕትዮ": 2358,
      "ሰናይ": 2359,
      "ይኽእሉ": 2360,
      "ዓውዲ": 2361,
      "ኣሕዋተይ": 2362,
      "ቤቱ": 2363,
      "ጽና": 2364,
      "ነፈርቲ": 2365,
      "ተጋዳላይ": 2366,
      "ሎጂ": 2367,
      "መልክ": 2368,
      "ሓዲ": 2369,
      "ፈልጡ": 2370,
      "ብሕ": 2371,
      "ደቅና": 2372,
      "ግድን": 2373,
      "ሙዚ": 2374,
      "ይኸ": 2375,
      "ምስኡ": 2376,
      "ወራ": 2377,
      "ሒዛ": 2378,
      "ፕሪመር": 2379,
      "ብታት": 2380,
      "ንደ": 2381,
      "ሜላ": 2382,
      "አብ": 2383,
      "ዝተኸ": 2384,
      "ልምዓት": 2385,
      "እታው": 2386,
      "ወኪል": 2387,
      "ኩባንያ": 2388,
      "ከምእተ": 2389,
      "ዝለዓለ": 2390,
      "መሰረ": 2391,
      "ብደረጃ": 2392,
      "ይረጋገጸሎም": 2393,
      "ሊት": 2394,
      "ጻል": 2395,
      "ወደ": 2396,
      "መሪሕ": 2397,
      "ዓድ": 2398,
      "ብሽክለታ": 2399,
      "ፈተነ": 2400,
      "ሰፊሕ": 2401,
      "ሓመድ": 2402,
      "ንዘ": 2403,
      "ከበ": 2404,
      "መጋቢት": 2405,
      "ጸመ": 2406,
      "ዝተዋህ": 2407,
      "ዋር": 2408,
      "መበ": 2409,
      "ብሪጣን": 2410,
      "ትብ": 2411,
      "ኤን": 2412,
      "ዳዕ": 2413,
      "ኣሳ": 2414,
      "ማትን": 2415,
      "ኒን": 2416,
      "ደቒቕ": 2417,
      "ካሕ": 2418,
      "ጳኛ": 2419,
      "ኻኽ": 2420,
      "ደጊ": 2421,
      "መድሃኒት": 2422,
      "ዝበለጸ": 2423,
      "ኣሚ": 2424,
      "ዝኾኑ": 2425,
      "ቀጻሊ": 2426,
      "2018": 2427,
      "ጸቕ": 2428,
      "እንተኾ": 2429,
      "ርኢ": 2430,
      "ኻኺ": 2431,
      "ወገ": 2432,
      "ሪቡ": 2433,
      "ሊቨር": 2434,
      "ዝገበረ": 2435,
      "ሕቡራት": 2436,
      "ቀልጢ": 2437,
      "ምዃን": 2438,
      "ኪዳን": 2439,
      "ተሓቢሩ": 2440,
      "ሩይ": 2441,
      "ናትን": 2442,
      "የብ": 2443,
      "ክትከውን": 2444,
      "ሽልማት": 2445,
      "ተሸ": 2446,
      "ብ0": 2447,
      "ሸነ": 2448,
      "ሰሜናዊ": 2449,
      "ተደጋጋ": 2450,
      "ውያንን": 2451,
      "ላእ": 2452,
      "ስጉምቲ": 2453,
      "ኣቦይ": 2454,
      "ተጋደል": 2455,
      "ዱሽተ": 2456,
      "ሃየ": 2457,
      "ተቐዳደም": 2458,
      "ወፍሪ": 2459,
      "ነበረት": 2460,
      "ኣደይ": 2461,
      "ኩለን": 2462,
      "ዩኒ": 2463,
      "ዘርኢ": 2464,
      "ምልክታ": 2465,
      "ሓጋ": 2466,
      "ሕማማት": 2467,
      "መጋባኣያ": 2468,
      "ሓምለ": 2469,
      "ወለዶ": 2470,
      "ንኹሉ": 2471,
      "ኢዱ": 2472,
      "ፊል": 2473,
      "ወሃ": 2474,
      "በሎም": 2475,
      "ንእሽቶ": 2476,
      "ሆስፒታል": 2477,
      "ሌፎን": 2478,
      "እዘን": 2479,
      "ሚያ": 2480,
      "ፈረ": 2481,
      "ልብ": 2482,
      "ጥቓ": 2483,
      "ሰድ": 2484,
      "ምስጢ": 2485,
      "ቀሳቐስ": 2486,
      "ኣረጋጊ": 2487,
      "ሰሜን": 2488,
      "ነፋ": 2489,
      "ትጽቢት": 2490,
      "በሩ": 2491,
      "መይቲ": 2492,
      "እነ": 2493,
      "ሙኒ": 2494,
      "ጀን": 2495,
      "ጻወት": 2496,
      "ተደጋጋሚ": 2497,
      "ኣለዎም": 2498,
      "ክገብር": 2499,
      "ሓረስ": 2500,
      "ተጠቒ": 2501,
      "ዘለኻ": 2502,
      "ፖለቲካዊ": 2503,
      "2017": 2504,
      "ሃንደ": 2505,
      "ዕጡ": 2506,
      "ዓባይ": 2507,
      "ኣህጉራዊ": 2508,
      "ለል": 2509,
      "ቀዳም": 2510,
      "ሪያል": 2511,
      "መዓልታዊ": 2512,
      "ሽማ": 2513,
      "ውሃንስ": 2514,
      "ምዃነይ": 2515,
      "ሎና": 2516,
      "ሔር": 2517,
      "ታሕሳስ": 2518,
      "ፈረንሳ": 2519,
      "ኣዲ": 2520,
      "ክታት": 2521,
      "ኣዳ": 2522,
      "ዝብሉ": 2523,
      "ሳላ": 2524,
      "ናይታ": 2525,
      "ዝኣመሰሉ": 2526,
      "ብጾ": 2527,
      "ዝምልከት": 2528,
      "ያትን": 2529,
      "ዝበሉ": 2530,
      "ክትብል": 2531,
      "ፑል": 2532,
      "ክፈ": 2533,
      "ጽልዋ": 2534,
      "ዝተጠቕ": 2535,
      "ጉስ": 2536,
      "ንቡር": 2537,
      "ኣተሓሳስ": 2538,
      "ወተሃደራዊ": 2539,
      "ኣፍልጦ": 2540,
      "ገደ": 2541,
      "ገብ": 2542,
      "ልተ": 2543,
      "ሶን": 2544,
      "ተሉ": 2545,
      "ዙርያ": 2546,
      "ክግ": 2547,
      "ዝደለ": 2548,
      "መዋ": 2549,
      "ሽዱሽተ": 2550,
      "ኑኤል": 2551,
      "31": 2552,
      "ይግለጽ": 2553,
      "ከሳሲ": 2554,
      "ሰራሕተኛታት": 2555,
      "ቅርጺ": 2556,
      "ወለዲ": 2557,
      "እኹል": 2558,
      "ኣብርሃ": 2559,
      "ሕዳር": 2560,
      "ጡፍ": 2561,
      "ደሴ": 2562,
      "ፈልጥን": 2563,
      ")፡": 2564,
      "ረኽበ": 2565,
      "መሸ": 2566,
      "ፈደረሽን": 2567,
      "ከላኸ": 2568,
      "ትእዛዝ": 2569,
      "የማነ": 2570,
      "ብቐሊሉ": 2571,
      "ቈልዓ": 2572,
      "ኣይክእልን": 2573,
      "ጠለ": 2574,
      "ሰደ": 2575,
      "ጻወ": 2576,
      "ብምግባር": 2577,
      "ህጻን": 2578,
      "ኻድ": 2579,
      "ተወዳ": 2580,
      "ተም": 2581,
      "ተቐዳደምቲ": 2582,
      "ሓሊፉ": 2583,
      "ብምቕ": 2584,
      "ሕቶታት": 2585,
      "ካት": 2586,
      "ዝገልጽ": 2587,
      "ሳሌ": 2588,
      "ልዕ": 2589,
      "ዝኽእሉ": 2590,
      "ስትራ": 2591,
      "ምብራቕ": 2592,
      "ኣካይ": 2593,
      "ሓብ": 2594,
      "ክድ": 2595,
      "ጽዮን": 2596,
      "ህዝብን": 2597,
      "ዘም": 2598,
      "ዝሃቦ": 2599,
      "ሊን": 2600,
      "ዝሓዘ": 2601,
      "ዝደ": 2602,
      "ድያ": 2603,
      "ቪዥ": 2604,
      "ርስ": 2605,
      "ብምዃን": 2606,
      "ሓቢሮም": 2607,
      "35": 2608,
      "ኦምን": 2609,
      "ከታ": 2610,
      "ዘበለ": 2611,
      "ኩር": 2612,
      "ዝተቐ": 2613,
      "ስቲቫል": 2614,
      "ዝሓሸ": 2615,
      "መሓሪ": 2616,
      "ግብረ": 2617,
      "ሙድ": 2618,
      "ሃይማኖት": 2619,
      "ናጻ": 2620,
      "ምኽሪ": 2621,
      "ጻጸ": 2622,
      "ሳዋ": 2623,
      "ጻሩ": 2624,
      "ጠራ": 2625,
      "ኽብ": 2626,
      "ለበ": 2627,
      "ወሳ": 2628,
      "ከምዘለዎ": 2629,
      "ውት": 2630,
      "ራጽ": 2631,
      "ቖም": 2632,
      "ምክት": 2633,
      "ፈቲ": 2634,
      "ዘርእ": 2635,
      "ሓጎስ": 2636,
      "ዝፍለጥ": 2637,
      "ጉል": 2638,
      "ሃሉ": 2639,
      "ኣርእስቲ": 2640,
      "ደገፍ": 2641,
      "ተጋደልቲ": 2642,
      "ርዎ": 2643,
      "ብሎም": 2644,
      "ምንባ": 2645,
      "ብብዝሒ": 2646,
      "መብራህ": 2647,
      "ፍልል": 2648,
      "ምቅ": 2649,
      "መራሕቲ": 2650,
      "ዘቕ": 2651,
      "ግዒ": 2652,
      "100": 2653,
      "ከስ": 2654,
      "ጠቒ": 2655,
      "እኩ": 2656,
      "ባትን": 2657,
      "መርበብ": 2658,
      "መሃ": 2659,
      "ማስ": 2660,
      "ጥቅምቲ": 2661,
      "ምስጋ": 2662,
      "ወስድ": 2663,
      "በሊ": 2664,
      "አት": 2665,
      "ፍቓድ": 2666,
      "ከይት": 2667,
      "ባህላዊ": 2668,
      "ላዕለዋይ": 2669,
      "ኣመልኪ": 2670,
      "ንግዲ": 2671,
      "ራዕ": 2672,
      "ውሽጣዊ": 2673,
      "ውንድ": 2674,
      "እንሆ": 2675,
      "ዕላል": 2676,
      "ዳስነት": 2677,
      "ስዉ": 2678,
      "ንድ": 2679,
      "ጸብጻባት": 2680,
      "ገሊጾም": 2681,
      "ብራዚ": 2682,
      "ለይን": 2683,
      "ብርቱ": 2684,
      "ኤርትራን": 2685,
      "ምልክት": 2686,
      "መጺኡ": 2687,
      "ናቱ": 2688,
      "ሽማግለ": 2689,
      "ክቐ": 2690,
      "መሪር": 2691,
      "ጸዓት": 2692,
      "ብዎ": 2693,
      "ስላሴ": 2694,
      "ክፉ": 2695,
      "ተበጊ": 2696,
      "ስግ": 2697,
      "ኣዘኻኺ": 2698,
      "የይ": 2699,
      "ሚያዝያ": 2700,
      "ኣዮ": 2701,
      "ሊቨርፑል": 2702,
      "ዩን": 2703,
      "ተሳተ": 2704,
      "የረድ": 2705,
      "ለስ": 2706,
      "ገላ": 2707,
      "ለካቲት": 2708,
      "ግላጽ": 2709,
      "ጸቕጢ": 2710,
      "ስለዝሞተት": 2711,
      "ሱዳን": 2712,
      "ንምሕ": 2713,
      "እንስሳታት": 2714,
      "ራኸ": 2715,
      "ትሑ": 2716,
      "ኣትለቲ": 2717,
      "ክዳ": 2718,
      "ገንዘ": 2719,
      "እንከለዉ": 2720,
      "ብምጥቃስ": 2721,
      "ብሓባር": 2722,
      "ሓም": 2723,
      "ጉባ": 2724,
      "ተዓዊ": 2725,
      "ዝጥቀ": 2726,
      "ሰርሐ": 2727,
      "ተይቲ": 2728,
      "ክንድ": 2729,
      "ከምዝኾነ": 2730,
      "ቆም": 2731,
      "ጦም": 2732,
      "መርመራ": 2733,
      "ሲን": 2734,
      "ኪኸውን": 2735,
      "ተገሊጹ": 2736,
      "ኣብዛ": 2737,
      "ደቁ": 2738,
      "ክም": 2739,
      "እንቋ": 2740,
      "ላቶም": 2741,
      "ዓቐን": 2742,
      "ዝኾነት": 2743,
      "ድካ": 2744,
      "መላእ": 2745,
      "ፓውንድ": 2746,
      "መቓ": 2747,
      "ሓዳሪ": 2748,
      "ኤሪ": 2749,
      "ኮርያ": 2750,
      "ዐን": 2751,
      "መጻሕ": 2752,
      "ሒዞም": 2753,
      "ሰሓ": 2754,
      "ዝርጋ": 2755,
      "ምምሕዳ": 2756,
      "ቅድም": 2757,
      "ንነብ": 2758,
      "ሰይቲ": 2759,
      "ሕጽ": 2760,
      "በርሀ": 2761,
      "ከተማታት": 2762,
      "ጋሽ": 2763,
      "ብምምል": 2764,
      "ዲኻ": 2765,
      "ህቡ": 2766,
      "ብያ": 2767,
      "ካልእን": 2768,
      "ዶክተር": 2769,
      "ክኢሉ": 2770,
      "ጋገ": 2771,
      "ወና": 2772,
      "በና": 2773,
      "197": 2774,
      "ስለዝበለት": 2775,
      "ምሕረት": 2776,
      "ውዳ": 2777,
      "ለለ": 2778,
      "ብሪጣንያ": 2779,
      "ኩምን": 2780,
      "ባርካ": 2781,
      "መስተ": 2782,
      "ክርስትያን": 2783,
      "ክኽ": 2784,
      "ዝጸ": 2785,
      "ግርማይ": 2786,
      "ሸውዓተ": 2787,
      "ኣብሪ": 2788,
      "ሕሉ": 2789,
      "ተርእዮ": 2790,
      "ይረ": 2791,
      "ብምሕባር": 2792,
      "ገልግል": 2793,
      "ፈሻዊ": 2794,
      "ሎስ": 2795,
      "ይም": 2796,
      "እናበልና": 2797,
      "ሃማ": 2798,
      "እለ": 2799,
      "ዳማይ": 2800,
      "ክርስቲ": 2801,
      "ከለዉ": 2802,
      "ስነት": 2803,
      "ኣሽ": 2804,
      "ሓስብ": 2805,
      "ፍራ": 2806,
      "ገበን": 2807,
      "ተፈሊጡ": 2808,
      "ዝገበር": 2809,
      "ርእየ": 2810,
      "ጸጋይ": 2811,
      "ሜትሮ": 2812,
      "ጸባር": 2813,
      "ስምምዕ": 2814,
      "ነሓሰ": 2815,
      "ድዮ": 2816,
      "ቤል": 2817,
      "ዐት": 2818,
      "ዳድ": 2819,
      "ቃብ": 2820,
      "ካይዶ": 2821,
      "ርኩ": 2822,
      "ስለዝበለ": 2823,
      "ትርጉም": 2824,
      "መነባብ": 2825,
      "ቅኑዕ": 2826,
      "ቀሊል": 2827,
      "ፍካ": 2828,
      "ዝገብ": 2829,
      "ብጻሕ": 2830,
      "ምልከት": 2831,
      "ንኻል": 2832,
      "ወሰን": 2833,
      "ሚን": 2834,
      "ባይቶ": 2835,
      "ብ1": 2836,
      "ብምም": 2837,
      "ባህር": 2838,
      "ዓንሰባ": 2839,
      "ዓለምና": 2840,
      "ሳተፍ": 2841,
      "ከምዝኽእል": 2842,
      "ብዓል": 2843,
      "ጭታት": 2844,
      "ብርቱዕ": 2845,
      "ቪዥን": 2846,
      "ተቓው": 2847,
      "ጋብ": 2848,
      "ዝዀኑ": 2849,
      "ኣተሓሳስባ": 2850,
      "ሕግ": 2851,
      "ንጽ": 2852,
      "ሙዚቃ": 2853,
      "ግዜኡ": 2854,
      "እካ": 2855,
      "ዝተመዝገበ": 2856,
      "ልዳት": 2857,
      "ዝገብር": 2858,
      "ክካየድ": 2859,
      "ኣሎና": 2860,
      "ኣመና": 2861,
      "ርም": 2862,
      "ክቡር": 2863,
      "ከፊ": 2864,
      "ናብታ": 2865,
      "ማራ": 2866,
      "198": 2867,
      "ግብጺ": 2868,
      "ዝስዕብ": 2869,
      "ግዚ": 2870,
      "ትታት": 2871,
      "ኣኒ": 2872,
      "ኽንያት": 2873,
      "ወገናት": 2874,
      "ኪኤል": 2875,
      "ዝበጽ": 2876,
      "ዓመታዊ": 2877,
      "ኖሎጂ": 2878,
      "ራጺ": 2879,
      "ርእሶም": 2880,
      "ይዝ": 2881,
      "ደሃይ": 2882,
      "ዝበል": 2883,
      "ዝርከባ": 2884,
      "ዓዊ": 2885,
      "ውህ": 2886,
      "ቀዳሞት": 2887,
      "ዓወ": 2888,
      "ፍና": 2889,
      "ኻዊ": 2890,
      "ዱን": 2891,
      "ጎድ": 2892,
      "ሕብሪ": 2893,
      "መኸ": 2894,
      "ደላ": 2895,
      "ንምም": 2896,
      "ምስታ": 2897,
      "ትሕተ": 2898,
      "ከምዘለዉ": 2899,
      "ሳሌም": 2900,
      "ከት": 2901,
      "ይፈ": 2902,
      "ምሉ": 2903,
      "ካብታ": 2904,
      "ለሉ": 2905,
      "ሓባ": 2906,
      "ተረኺ": 2907,
      "ሃንደበት": 2908,
      "ኪን": 2909,
      "ኵሎም": 2910,
      "ተቐቢ": 2911,
      "ዝግለጽ": 2912,
      "ዓሉ": 2913,
      "የሩ": 2914,
      "ኣጽዋ": 2915,
      "ተታ": 2916,
      "ጽባቐ": 2917,
      "ውነት": 2918,
      "ወሪ": 2919,
      "60": 2920,
      "ገበር": 2921,
      "ጠረ": 2922,
      "ዝኸይድ": 2923,
      "ኣቡ": 2924,
      "ኣጥቃ": 2925,
      "ተሳተፍቲ": 2926,
      "ብምኽንያት": 2927,
      "ክጥቀ": 2928,
      "ዝደሊ": 2929,
      "ዝዝ": 2930,
      "መዳይ": 2931,
      "ኣትዩ": 2932,
      "ክተ": 2933,
      "ጉባኤ": 2934,
      "ድሕሪት": 2935,
      "ነታዊ": 2936,
      "ብወገኑ": 2937,
      "በይኑ": 2938,
      "ኤርትራዊ": 2939,
      "ሎምን": 2940,
      "ድሒ": 2941,
      "ሕብረት": 2942,
      "ራእ": 2943,
      "ፓብሊ": 2944,
      "ዝመር": 2945,
      "ሓፈሻዊ": 2946,
      "መጽናዕ": 2947,
      "ረጽ": 2948,
      "ኣድማ": 2949,
      "ነፍስ": 2950,
      "ዝዕ": 2951,
      "ኣይን": 2952,
      "ኣርኣያ": 2953,
      "ጣዕ": 2954,
      "ሪኖ": 2955,
      "ክብረ": 2956,
      "ደልየ": 2957,
      "ሰበይ": 2958,
      "እትርከብ": 2959,
      "ስደ": 2960,
      "ኸይ": 2961,
      "ኣቑ": 2962,
      "ሂም": 2963,
      "ባጽዕ": 2964,
      "ወጽእ": 2965,
      "ሃድ": 2966,
      "ተዘ": 2967,
      "ልድ": 2968,
      "ጣር": 2969,
      "ራም": 2970,
      "ሓቀ": 2971,
      "ዓሚ": 2972,
      "ሶት": 2973,
      "ኢሳይ": 2974,
      "ብኣን": 2975,
      "ኣማራጺ": 2976,
      "ብርግጽ": 2977,
      "ንግሆ": 2978,
      "ንዕኡ": 2979,
      "ኣድራ": 2980,
      "መርሃ": 2981,
      "ኢዮም": 2982,
      "ኣገልግሎ": 2983,
      "ክብሉ": 2984,
      "ፈላ": 2985,
      "ጻዕዳ": 2986,
      "ምውሳ": 2987,
      "ቁጠባዊ": 2988,
      "ነጽ": 2989,
      "ስቕ": 2990,
      "ጀነ": 2991,
      "ብተመሳሳሊ": 2992,
      "ሴፍ": 2993,
      "ዳግማይ": 2994,
      "ስሙ": 2995,
      "ባህርያዊ": 2996,
      "ምርኢት": 2997,
      "ረኺቡ": 2998,
      "ዓረ": 2999,
      "ክሪ": 3000,
      "ካባ": 3001,
      "ተበግ": 3002,
      "ዝግብ": 3003,
      "ብብ": 3004,
      "ጸሊ": 3005,
      "ዝኣክል": 3006,
      "ፍትሒ": 3007,
      "ዕጡቓት": 3008,
      "ዘል": 3009,
      "መምር": 3010,
      "ብቐጥታ": 3011,
      "ከይተረ": 3012,
      "ጋንታኡ": 3013,
      "ዳሕ": 3014,
      "ዝተወ": 3015,
      "በጃ": 3016,
      "ሕና": 3017,
      "ብርክት": 3018,
      "ዘድል": 3019,
      "ዘሎና": 3020,
      "ሓያለ": 3021,
      "ዝኣመሰለ": 3022,
      "ፓብሊክ": 3023,
      "እምባ": 3024,
      "ሓትት": 3025,
      "ብባር": 3026,
      "ጸዊ": 3027,
      "ፊት": 3028,
      "መስቀል": 3029,
      "በኒ": 3030,
      "መድህን": 3031,
      "ቀደም": 3032,
      "ጠባ": 3033,
      "ፍሽ": 3034,
      "ኸቢ": 3035,
      "ኣዚ": 3036,
      "ዝመስል": 3037,
      "2019": 3038,
      "ኣእዳ": 3039,
      "ብምር": 3040,
      "ገምጋም": 3041,
      "ስታት": 3042,
      "ልቦ": 3043,
      "ዳዲ": 3044,
      "ቀለ": 3045,
      "ዝዛ": 3046,
      "ዮንስ": 3047,
      "ገዛና": 3048,
      "ነዞም": 3049,
      "ክህሉ": 3050,
      "ጸንሐ": 3051,
      "ወይኒ": 3052,
      "ሓርነት": 3053,
      "ጸንሕ": 3054,
      "ፋእ": 3055,
      "ጋር": 3056,
      "መሰረታዊ": 3057,
      "ኢሳይያስ": 3058,
      "ልበይ": 3059,
      "ሒት": 3060,
      "ተራእዩ": 3061,
      "ባሕቲ": 3062,
      "መነባብሮ": 3063,
      "በልኩ": 3064,
      "መወከ": 3065,
      "ክቕጽል": 3066,
      "ያም": 3067,
      "ተማሃ": 3068,
      "ምጽን": 3069,
      "ውልቀ": 3070,
      "ፈለጥ": 3071,
      "ረኣየ": 3072,
      "ጊዜ": 3073,
      "መጻሕፍቲ": 3074,
      "ብዝብል": 3075,
      "ኣመሓዳሪ": 3076,
      "ኪም": 3077,
      "ነፍልጥ": 3078,
      "ዝመል": 3079,
      "ዝና": 3080,
      "ይቕጽል": 3081,
      "2ይ": 3082,
      "ሸነኽ": 3083,
      "ኸለ": 3084,
      "ተሰሪ": 3085,
      "ቨን": 3086,
      "ውሉ": 3087,
      "ገልጹ": 3088,
      "ብኻልእ": 3089,
      "ምንጭታት": 3090,
      "መሊሱ": 3091,
      "ነፋሪት": 3092,
      "ኤስ": 3093,
      "ጽዋዕ": 3094,
      "ወራሲ": 3095,
      "ልባ": 3096,
      "ሕሰም": 3097,
      "ዝበዝሐ": 3098,
      "ሓደስቲ": 3099,
      "ሰርቲ": 3100,
      "ሞንተ": 3101,
      "ተቖ": 3102,
      "ምስግጋ": 3103,
      "ናትና": 3104,
      "ኣግራብ": 3105,
      "ተዓዘብ": 3106,
      "ደቓ": 3107,
      "እትን": 3108,
      "ብሃል": 3109,
      "ዑቕባ": 3110,
      "ዝጽ": 3111,
      "ዮውሃንስ": 3112,
      "ጢሩ": 3113,
      "መወከሲ": 3114,
      "ሶርያ": 3115,
      "ዕማም": 3116,
      "ሓጢ": 3117,
      "የብል": 3118,
      "ስድራቤት": 3119,
      "ፍታሕ": 3120,
      "ሒደት": 3121,
      "ናብራ": 3122,
      "ፖር": 3123,
      "ገዳ": 3124,
      "ኢብራ": 3125,
      "መሓላል": 3126,
      "ሓለፍቲ": 3127,
      "ስርዓተ": 3128,
      "ንዚ": 3129,
      "ወደይ": 3130,
      "ትሑት": 3131,
      "ዝኽሪ": 3132,
      "ሃት": 3133,
      "ራቕ": 3134,
      "ብመን": 3135,
      "በረኸት": 3136,
      "07": 3137,
      "ሩባ": 3138,
      "ድቃስ": 3139,
      "ብምዕ": 3140,
      "መቕጻዕ": 3141,
      "ወይስ": 3142,
      "ሃገሩ": 3143,
      "ማዕከ": 3144,
      "ዝሞ": 3145,
      "ርበት": 3146,
      "ረኣ": 3147,
      "ገይሮም": 3148,
      "ኣተወ": 3149,
      "ሁድ": 3150,
      "ደሞ": 3151,
      "ፍትን": 3152,
      "ህድ": 3153,
      "ፈስቲቫል": 3154,
      "ሃገራ": 3155,
      "ቡል": 3156,
      "ሳር": 3157,
      "ዘሎዎ": 3158,
      "ባህለ": 3159,
      "ሃደ": 3160,
      "ኣዝዮም": 3161,
      "ብምንባሩ": 3162,
      "ክበሃል": 3163,
      "ጭን": 3164,
      "ንገዛእ": 3165,
      "ምስራሕ": 3166,
      "ነቐ": 3167,
      "ፍጥ": 3168,
      "ሮናል": 3169,
      "ዛይ": 3170,
      "ሰብኣዊ": 3171,
      "ክርስቲያን": 3172,
      "ሙሉ": 3173,
      "ማሕበረ": 3174,
      "ክልቲኦም": 3175,
      "ገረብ": 3176,
      "ብተደጋጋሚ": 3177,
      "እናገለ": 3178,
      "በረሉ": 3179,
      "ኣለኻ": 3180,
      "መካይን": 3181,
      "ቴክኖሎጂ": 3182,
      "ዝተዳ": 3183,
      "ዮሃንስ": 3184,
      "ዕብየት": 3185,
      "ፍታ": 3186,
      "ማዕከናት": 3187,
      "ሓዘ": 3188,
      "ተጫ": 3189,
      "ቅያ": 3190,
      "ብዓ": 3191,
      "ኮለጅ": 3192,
      "ረቛ": 3193,
      "ዝሃብ": 3194,
      "ስርሓት": 3195,
      "ንናይ": 3196,
      "ሓሲ": 3197,
      "መምርሒ": 3198,
      "ፍርያት": 3199,
      "ደርፊ": 3200,
      "ዋዕ": 3201,
      "መንደፈራ": 3202,
      "ተቓውሞ": 3203,
      "ኢንተር": 3204,
      "ስሉ": 3205,
      "ኩሮ": 3206,
      "ጃፓ": 3207,
      "ኣውቶ": 3208,
      "ጽግ": 3209,
      "ምስጋና": 3210,
      "ኰይኖም": 3211,
      "ሞባይ": 3212,
      "ኣይከኣለን": 3213,
      "መልክት": 3214,
      "ኣቕሪ": 3215,
      "ተበግሶ": 3216,
      "ባሳ": 3217,
      "ግዲ": 3218,
      "ቀጺሉ": 3219,
      "ዝናብ": 3220,
      "ዝምልከቶ": 3221,
      "ዮር": 3222,
      "ክፋ": 3223,
      "ነር": 3224,
      "ከይተ": 3225,
      "ሓቲ": 3226,
      "ክእለት": 3227,
      "ክኸይድ": 3228,
      "ፉን": 3229,
      ".\"": 3230,
      "ብምድ": 3231,
      "ደብዳበ": 3232,
      "እትብል": 3233,
      "ቀዳመይቲ": 3234,
      "መንበር": 3235,
      "ቃዊ": 3236,
      "ሮማ": 3237,
      "ዋል": 3238,
      "ፕሮጀ": 3239,
      "ንኹ": 3240,
      "ርግጋ": 3241,
      "ብዝተ": 3242,
      "ይል": 3243,
      "ደቓይቕ": 3244,
      "ዘቃ": 3245,
      "ላም": 3246,
      "ስታን": 3247,
      "ጥል": 3248,
      "ኣፍሊጡ": 3249,
      "ሃና": 3250,
      "ቴሌፎን": 3251,
      "ገማ": 3252,
      "ሃብታ": 3253,
      "ትስ": 3254,
      "ምድላ": 3255,
      "ጐድ": 3256,
      "ቋር": 3257,
      "ምህሮ": 3258,
      "ነቕ": 3259,
      "ዩም": 3260,
      "ዝጊቡ": 3261,
      "ሂወ": 3262,
      "ፈልጠ": 3263,
      "ሻምፕዮንስ": 3264,
      "ግደፍ": 3265,
      "ኣቓል": 3266,
      "ይገብር": 3267,
      "ቃንዛ": 3268,
      "ይሁ": 3269,
      "ዝገበሮ": 3270,
      "ሪን": 3271,
      "ውንን": 3272,
      "እዋኑ": 3273,
      "ዘድሊ": 3274,
      "ረቦ": 3275,
      "ተጓ": 3276,
      "ትምህርትን": 3277,
      "ኔሩ": 3278,
      "ቅዕ": 3279,
      "የሉ": 3280,
      "ደቀም": 3281,
      "ጸናናዕ": 3282,
      "ጸራ": 3283,
      "እምኒ": 3284,
      "ትል": 3285,
      "ሃገርን": 3286,
      "ምርምር": 3287,
      "ዝነብሩ": 3288,
      "ናብኡ": 3289,
      "ፕላ": 3290,
      "ዓኒ": 3291,
      "ኰይና": 3292,
      "ንዱ": 3293,
      "ሓደገ": 3294,
      "ኣትሒዙ": 3295,
      "ኤፍ": 3296,
      "ንየሆዋ": 3297,
      "ስስ": 3298,
      "ኣንበ": 3299,
      "ምሩ": 3300,
      "ህያብ": 3301,
      "ኽታ": 3302,
      "ወተሃደራት": 3303,
      "ሓልፍ": 3304,
      "ረቛሒ": 3305,
      "ሳሙ": 3306,
      "እዎ": 3307,
      "ዓስ": 3308,
      "ዘለወን": 3309,
      "ዕቡ": 3310,
      "ኩምናን": 3311,
      "ዝግባእ": 3312,
      "ምዕራብ": 3313,
      "ክያድ": 3314,
      "ረር": 3315,
      "ንስኺ": 3316,
      "ፈሉ": 3317,
      "ዩኒቨር": 3318,
      "ንሰብ": 3319,
      "በጺሑ": 3320,
      "ጽሑፋት": 3321,
      "ምጥቃ": 3322,
      "ዝሰር": 3323,
      "ማልያ": 3324,
      "ጋራ": 3325,
      "ውንቲ": 3326,
      "ፐር": 3327,
      "ገጻት": 3328,
      "ደቡባዊ": 3329,
      "ኣዕሩ": 3330,
      "ስሩ": 3331,
      "ዎስ": 3332,
      "ኣካላዊ": 3333,
      "ቡስ": 3334,
      "ክትዕ": 3335,
      "መማህ": 3336,
      "ሓጎ": 3337,
      "መራኸቢ": 3338,
      "ዕዉት": 3339,
      "ፍልልይ": 3340,
      "መንግስትን": 3341,
      "ሞሪኖ": 3342,
      "ሰውራ": 3343,
      "ሓረስቶት": 3344,
      "ቤታ": 3345,
      "ውሑዳት": 3346,
      "ፈተና": 3347,
      "ዝቕጽል": 3348,
      "ሽግር": 3349,
      "ረጋግጽ": 3350,
      "ተና": 3351,
      "ስለዝደለ": 3352,
      "ተመስ": 3353,
      "ምጅ": 3354,
      "ኣቓልቦ": 3355,
      "ታፍ": 3356,
      "ምንባር": 3357,
      "ክዛ": 3358,
      "ተግባራት": 3359,
      "ሸሞንተ": 3360,
      "ተፈጥሮ": 3361,
      "ኾም": 3362,
      "መብዛሕትኡ": 3363,
      "ቫይ": 3364,
      "ገይረ": 3365,
      "!!": 3366,
      "ዑስ": 3367,
      "ቅድድም": 3368,
      "ዝጀመረ": 3369,
      "ሰለሙን": 3370,
      "ርአ": 3371,
      "ዘጸናናዕ": 3372,
      "ይጽ": 3373,
      "ዝቐረበ": 3374,
      "ክዳን": 3375,
      "ሓትን": 3376,
      "ኣመልኪቱ": 3377,
      "የል": 3378,
      "32": 3379,
      "ኒው": 3380,
      "ዚብል": 3381,
      "ኣይትርከቡ": 3382,
      "ዛእቲ": 3383,
      "ተኸላ": 3384,
      "ሰልፊ": 3385,
      "ህዋ": 3386,
      "ኣባይቲ": 3387,
      "ይብሉ": 3388,
      "ለታት": 3389,
      "ባእ": 3390,
      "ሰራሕተኛ": 3391,
      "ናዳ": 3392,
      "በረኻ": 3393,
      "ኣቀ": 3394,
      "ሓይሽ": 3395,
      "ግናኸ": 3396,
      "37": 3397,
      "ቲና": 3398,
      "ቀስ": 3399,
      "ባርሴ": 3400,
      "ድሕሪኡ": 3401,
      "ላላ": 3402,
      "መሪሕነት": 3403,
      "ጎቦ": 3404,
      "እናበሉ": 3405,
      "ብኣንጻሩ": 3406,
      "ገዚ": 3407,
      "ቆብ": 3408,
      "ፈጺሙ": 3409,
      "ኣቦና": 3410,
      "ከለኹ": 3411,
      "ምላ": 3412,
      "ኣለካ": 3413,
      "ቴለ": 3414,
      "ንጹር": 3415,
      "ብት": 3416,
      "ቃለ": 3417,
      "ንነዊሕ": 3418,
      "ጳው": 3419,
      "ዝተፈላለያ": 3420,
      "ዝገለ": 3421,
      "ሉል": 3422,
      "ዋም": 3423,
      "ዝገብሮ": 3424,
      "ስኮ": 3425,
      "ንሓድሕ": 3426,
      "እትኽእል": 3427,
      "ምስጢር": 3428,
      "ኣጽ": 3429,
      "ሓና": 3430,
      "ዝጠቐ": 3431,
      "ብምል": 3432,
      "ህር": 3433,
      "ኣለኒ": 3434,
      "ተላብ": 3435,
      "ምሃብ": 3436,
      "ፍትሕ": 3437,
      "ኣዘኻኺሩ": 3438,
      "ሮናልዶ": 3439,
      "ይኽ": 3440,
      "መሓላለ": 3441,
      "ርሑቕ": 3442,
      "ናተይ": 3443,
      "ማሚ": 3444,
      "ብምኽ": 3445,
      "ላሊ": 3446,
      "ዘበ": 3447,
      "ዝል": 3448,
      "ህልዎ": 3449,
      "ኣደና": 3450,
      "ሲቪ": 3451,
      "ውሑድ": 3452,
      "ኣልቦ": 3453,
      "ብቕድሚ": 3454,
      "ጥዑም": 3455,
      "ዳኒ": 3456,
      "ከኣለ": 3457,
      "መጹ": 3458,
      "ዝመጸ": 3459,
      "ደሓር": 3460,
      "ዳህ": 3461,
      "ወጻእን": 3462,
      "ዝጸንሑ": 3463,
      "ሓወይ": 3464,
      "ኣጻ": 3465,
      "ዝህ": 3466,
      "ክዋ": 3467,
      "ዝተራ": 3468,
      "ዝርአ": 3469,
      "ክኾኑ": 3470,
      "ብምግላጽ": 3471,
      "ማቴ": 3472,
      "ባህልን": 3473,
      "ኣታዊ": 3474,
      "ዝመጽ": 3475,
      "ብጥ": 3476,
      "ሻር": 3477,
      "ግራት": 3478,
      "ጥንቃ": 3479,
      "ጊሩ": 3480,
      "ዕና": 3481,
      "እዚኣቶም": 3482,
      "መርከብ": 3483,
      "ገልግ": 3484,
      "መጻምድ": 3485,
      "ኦትን": 3486,
      "ዓና": 3487,
      "ፋሽ": 3488,
      "ብምኻድ": 3489,
      "ምርግጋ": 3490,
      "ፕሮጀክት": 3491,
      "ዓንቀ": 3492,
      "ዝርጋሕ": 3493,
      "ዲፕ": 3494,
      "ልቡ": 3495,
      "ኣፍቃ": 3496,
      "ራብዓይ": 3497,
      "ብመገዲ": 3498,
      "ጽሬት": 3499,
      "ገጻ": 3500,
      "ፈሪ": 3501,
      "ህንዲ": 3502,
      "ለትን": 3503,
      "ሚኪኤል": 3504,
      "ራሽ": 3505,
      "እንተኾይኑ": 3506,
      "ሕዝ": 3507,
      "ብዝተፈላለየ": 3508,
      "ግፍ": 3509,
      "ኣሕሊ": 3510,
      "ብምእታው": 3511,
      "እቱ": 3512,
      "ደቀምሓረ": 3513,
      "ዎት": 3514,
      "ኣቃ": 3515,
      "ኣብሪሁ": 3516,
      "ወሲኹ": 3517,
      "ባባ": 3518,
      "ውሽጥን": 3519,
      "ቍጽሪ": 3520,
      "ሓቀኛ": 3521,
      "ስለዝተሰ": 3522,
      "መቕጻዕቲ": 3523,
      "ትርከብ": 3524,
      "ክሰርሕ": 3525,
      "ዘካ": 3526,
      "ክዓ": 3527,
      "ዓለማዊ": 3528,
      "ኮኾ": 3529,
      "ነሽ": 3530,
      "ኢሳ": 3531,
      "ድኽ": 3532,
      "ስጳኛ": 3533,
      "ንምንታይ": 3534,
      "ውዑ": 3535,
      "ንኣሽ": 3536,
      "ምስግጋር": 3537,
      "ድሕነት": 3538,
      "ዒላ": 3539,
      "ዝወረ": 3540,
      "መገ": 3541,
      "መአ": 3542,
      "ዘለካ": 3543,
      "እዮ": 3544,
      "ዓበ": 3545,
      "በቒ": 3546,
      "መዘ": 3547,
      "ቁር": 3548,
      "ኣምባሳ": 3549,
      "ዘይክእል": 3550,
      "ሳልሕ": 3551,
      "ዘጋጠ": 3552,
      "ኣይፈልጥን": 3553,
      "ዝወስ": 3554,
      "ዓቐ": 3555,
      "ጀርያ": 3556,
      "ንምርካብ": 3557,
      "መዖ": 3558,
      "ፈነ": 3559,
      "ያር": 3560,
      "ታቲ": 3561,
      "ሰኪ": 3562,
      "ብቐጻሊ": 3563,
      "ቫን": 3564,
      "ሬሳ": 3565,
      "ስፖርታዊ": 3566,
      "ሳተፉ": 3567,
      "የለ": 3568,
      "ጥራሕ": 3569,
      "ጀነራል": 3570,
      "ምህርቲ": 3571,
      "ቀይ": 3572,
      "ረኸበ": 3573,
      "ዘካየደ": 3574,
      "ምድን": 3575,
      "ድሌ": 3576,
      "ስልጣ": 3577,
      "ነዳዲ": 3578,
      "ገሊኦም": 3579,
      "ወጺኡ": 3580,
      "የድሊ": 3581,
      "34": 3582,
      "ነጻ": 3583,
      "ማእሰርቲ": 3584,
      "መደበር": 3585,
      "ቀር": 3586,
      "ዘለው": 3587,
      "መሬ": 3588,
      "ንኻልኦት": 3589,
      "ዕም": 3590,
      "ካብተን": 3591,
      "ቱብ": 3592,
      "ረፍ": 3593,
      "ክርስትያ": 3594,
      "ፋዕ": 3595,
      "ጋስ": 3596,
      "ፓር": 3597,
      "ካሕሳይ": 3598,
      "ሃቦ": 3599,
      "ንምድ": 3600,
      "ምምዕባ": 3601,
      "ዶብ": 3602,
      "ጨው": 3603,
      "ጸጥታ": 3604,
      "ዑስማን": 3605,
      "ዘመናዊ": 3606,
      "ዘጋጠመ": 3607,
      "እንተዘይኮይኑ": 3608,
      "ጳውሎስ": 3609,
      "ተመሪ": 3610,
      "መንፈሳዊ": 3611,
      "ሮምን": 3612,
      "ሰማእ": 3613,
      "ኩምና": 3614,
      "ቫይረስ": 3615,
      "ብሞት": 3616,
      "መዓር": 3617,
      "ብራዚል": 3618,
      "ባሪ": 3619,
      "ወራር": 3620,
      "ምልክታት": 3621,
      "ኸይድ": 3622,
      "ቀረብ": 3623,
      "ክሽ": 3624,
      "ድቕ": 3625,
      "ካልኦትን": 3626,
      "ይረጋገጸለይ": 3627,
      "ኣወዳ": 3628,
      "ፋፍ": 3629,
      "ቢብ": 3630,
      "ይዎ": 3631,
      "ክረአ": 3632,
      "ቶተን": 3633,
      "ባርሴሎና": 3634,
      "ዮሴፍ": 3635,
      "ኸተማ": 3636,
      "ምርኣይ": 3637,
      "ዝበዝሑ": 3638,
      "ንኣምላኽ": 3639,
      "ዓንደ": 3640,
      "ምሽ": 3641,
      "ጊን": 3642,
      "ኣንፈት": 3643,
      "ጥበበ": 3644,
      "ዲፕሎ": 3645,
      "ሓሙስ": 3646,
      "ናይቶም": 3647,
      "ዓይነታት": 3648,
      "ኣማኑኤል": 3649,
      "ጽገ": 3650,
      "ዘቃበር": 3651,
      "ንብረ": 3652,
      "ንህዝቢ": 3653,
      "ጥና": 3654,
      "ማዕጾ": 3655,
      "ዝወሃብ": 3656,
      "ዝህብ": 3657,
      "ደንደን": 3658,
      "ንፋስ": 3659,
      "ጸጋታት": 3660,
      "ሰምበል": 3661,
      "ለኒ": 3662,
      "ክለቡ": 3663,
      "ሒቱ": 3664,
      "ገሰ": 3665,
      "ዝተበ": 3666,
      "በጽሐ": 3667,
      "ኣውጺ": 3668,
      "ዓድታት": 3669,
      "ከይድ": 3670,
      "ሰምዕ": 3671,
      "ኢብራሂም": 3672,
      "ገልጸ": 3673,
      "ውሕስነት": 3674,
      "ጸሓፊ": 3675,
      "ይሽ": 3676,
      "መባእታ": 3677,
      "ሞያዊ": 3678,
      "ናሕ": 3679,
      "ከደ": 3680,
      "ለተ": 3681,
      "ዳይረ": 3682,
      "ተኪ": 3683,
      "ዝተባህለት": 3684,
      "ኣጽዋር": 3685,
      "ሰምዖ": 3686,
      "ራስ": 3687,
      "33": 3688,
      "ጽኡ": 3689,
      "ገርግ": 3690,
      "ጋል": 3691,
      "ጠንቲ": 3692,
      "ዝተረፈ": 3693,
      "ኣፈወርቂ": 3694,
      "ከና": 3695,
      "ትት": 3696,
      "ወያ": 3697,
      "ዓዝ": 3698,
      "ቅድመ": 3699,
      "ፈቱ": 3700,
      "ረበሉ": 3701,
      "ተይን": 3702,
      "ተኣማን": 3703,
      "የሩሳሌም": 3704,
      "ደፍ": 3705,
      "ንምርግጋ": 3706,
      "ተሰም": 3707,
      "ንኡሳን": 3708,
      "ኢያ": 3709,
      "ውትን": 3710,
      "ጠቓል": 3711,
      "ንሕብር": 3712,
      "ይነን": 3713,
      "ሓቅ": 3714,
      "ክህልዎ": 3715,
      "ጥቕሚ": 3716,
      "ይሕብሩ": 3717,
      "ክረክብ": 3718,
      "ቀትሪ": 3719,
      "እጃ": 3720,
      "ታር": 3721,
      "ብኣጋ": 3722,
      "ግብር": 3723,
      "ዘርግ": 3724,
      "እንተዘይቀሪ": 3725,
      "ዓርከ": 3726,
      "ዓምዲ": 3727,
      "ኦር": 3728,
      "ንምግ": 3729,
      "ይንገር": 3730,
      "ዪዱ": 3731,
      "ድሌት": 3732,
      "ግዳይ": 3733,
      "ዘይኮነስ": 3734,
      "ቁጠባ": 3735,
      "ኮኾብ": 3736,
      "መጓዓ": 3737,
      "ዝድለ": 3738,
      "ጣሪ": 3739,
      "ዓላ": 3740,
      "ግድ": 3741,
      "ተመር": 3742,
      "ንምግባር": 3743,
      "ምሳይ": 3744,
      "ላትና": 3745,
      "ቤታት": 3746,
      "ንባብ": 3747,
      "ተሳት": 3748,
      "ኣጋጢ": 3749,
      "ርእስኻ": 3750,
      "ብህ": 3751,
      "መንበሪ": 3752,
      "ብድሕሪኡ": 3753,
      "ብቐንዱ": 3754,
      "ኣሕመድ": 3755,
      "ፋሊ": 3756,
      "ብዝግባእ": 3757,
      "80": 3758,
      "መስር": 3759,
      "ሰሎ": 3760,
      "ዘካየዶ": 3761,
      "ይገልጽ": 3762,
      "ዓሌ": 3763,
      "እድሪ": 3764,
      "ብወገን": 3765,
      "ጋዕ": 3766,
      "ቱርኪ": 3767,
      "ጠል": 3768,
      "ጻጽ": 3769,
      "39": 3770,
      "ዱእ": 3771,
      "ትኸውን": 3772,
      "ደገፍቲ": 3773,
      "ኻትኩም": 3774,
      "ኣካላ": 3775,
      "ዝነብር": 3776,
      "ረሲ": 3777,
      "ህግደፍ": 3778,
      "ቕካ": 3779,
      "ዘይኰነስ": 3780,
      "ሒዘ": 3781,
      "ፊኡ": 3782,
      "ሬን": 3783,
      "ዲና": 3784,
      "ገድሊ": 3785,
      ".)": 3786,
      "ዳንኤል": 3787,
      "ሓኒ": 3788,
      "ዓውደ": 3789,
      "ደሴት": 3790,
      "ቴል": 3791,
      "ዝበዝሕ": 3792,
      "ብዓቢ": 3793,
      "70": 3794,
      "ኣጸቢ": 3795,
      "ዘነ": 3796,
      "ተመሃ": 3797,
      "ሰማዕ": 3798,
      "መስለኒ": 3799,
      "እናገለጽና": 3800,
      "ይሕብር": 3801,
      "ጌርካ": 3802,
      "መዝሙር": 3803,
      "ዋንነት": 3804,
      "ኣፍቃሪ": 3805,
      "ዒት": 3806,
      "መቓብር": 3807,
      "ሕልሚ": 3808,
      "በካ": 3809,
      "ዓራ": 3810,
      "ልምዲ": 3811,
      "ንድሕሪት": 3812,
      "ዝነበሮም": 3813,
      "መዓና": 3814,
      "ለበዋ": 3815,
      "ውጽእ": 3816,
      "ኣሕዋት": 3817,
      "ብቐዳም": 3818,
      "ክልቲአን": 3819,
      "መለስ": 3820,
      "ስለዘሎ": 3821,
      "ግዙ": 3822,
      "36": 3823,
      "ሻሂ": 3824,
      "ጭዋ": 3825,
      "ብምህላ": 3826,
      "ይፍ": 3827,
      "ታውን": 3828,
      "ዑን": 3829,
      "ላለስ": 3830,
      "ጸሎት": 3831,
      "ተዋሂቡ": 3832,
      "ፎር": 3833,
      "ኣይም": 3834,
      "ኣንታ": 3835,
      "ቢልዮን": 3836,
      "ትንፋስ": 3837,
      "ሕብ": 3838,
      "ካይዱ": 3839,
      "ጠቒሱ": 3840,
      "ወሳኒ": 3841,
      "ምሕደራ": 3842,
      "መዚ": 3843,
      "ልሙድ": 3844,
      "ተቐዳዳማይ": 3845,
      "ኣትን": 3846,
      "ሕሙ": 3847,
      "ማውያን": 3848,
      "ኣጥ": 3849,
      "ግጥሚ": 3850,
      "ዚሙ": 3851,
      "ነየ": 3852,
      "ዝጋ": 3853,
      "ዓብዪ": 3854,
      "ገማግም": 3855,
      "ግራም": 3856,
      "ስዋ": 3857,
      "ዲት": 3858,
      "ብርሂ": 3859,
      "ዝነት": 3860,
      "ይው": 3861,
      "ትኩም": 3862,
      "ንኩን": 3863,
      "ሰራ": 3864,
      "ታው": 3865,
      "ብዝኾነ": 3866,
      "ጋድ": 3867,
      "ተኸታታ": 3868,
      "እል": 3869,
      "ባህርያት": 3870,
      "ኣበባ": 3871,
      "ዝበሎ": 3872,
      "ማማ": 3873,
      "ኣሰራር": 3874,
      "ብቕዓ": 3875,
      "ምዕቃብ": 3876,
      "ኻኽር": 3877,
      "ዘሚ": 3878,
      "ኣቦኡ": 3879,
      "ጴጥሮ": 3880,
      "ማዝ": 3881,
      "ንጹ": 3882,
      "ዮናስ": 3883,
      "ቕታ": 3884,
      "ሓጐስ": 3885,
      "ናባ": 3886,
      "ኳን": 3887,
      "ሓዘንና": 3888,
      "ዝመጹ": 3889,
      "መዝገብ": 3890,
      "ሚእቲ": 3891,
      "ዝሓል": 3892,
      "ጠይ": 3893,
      "ኣስተምህሮ": 3894,
      "እግዚአብ": 3895,
      "ጽምብል": 3896,
      "ብሕጋዊ": 3897,
      "ስርሒት": 3898,
      "ዘመዝገ": 3899,
      "49": 3900,
      "ተገዲ": 3901,
      "ወዱ": 3902,
      "ወቕቲ": 3903,
      "ውና": 3904,
      "ኣሉታዊ": 3905,
      "ምምሕዳራት": 3906,
      "መሓዙ": 3907,
      "ሰኑ": 3908,
      "ክህብ": 3909,
      "ጽኦ": 3910,
      "ሻን": 3911,
      "ደሰ": 3912,
      "ከለና": 3913,
      "ዘጋጥ": 3914,
      "ድፍ": 3915,
      "ንገለ": 3916,
      "ሕክም": 3917,
      "ኣገዳስነት": 3918,
      "ዘፍ": 3919,
      "ብሉጻት": 3920,
      "ኣመሪካን": 3921,
      "ፍሕ": 3922,
      "ሓደገኛ": 3923,
      "ውጥን": 3924,
      "ዑመር": 3925,
      "ትንሳ": 3926,
      "የብለይን": 3927,
      "ሃዋ": 3928,
      "ሳዕቤን": 3929,
      "ዘምጽ": 3930,
      "ተወፋይ": 3931,
      "ኣከባቢ": 3932,
      "እንኮ": 3933,
      "ክታበት": 3934,
      "የቐን": 3935,
      "ጨና": 3936,
      "2012": 3937,
      "ዓሌት": 3938,
      "ዕድላት": 3939,
      "ንዘሎ": 3940,
      "ውላድ": 3941,
      "ንዓኻ": 3942,
      "38": 3943,
      "ከጋ": 3944,
      "ቅድሚኡ": 3945,
      "ሓለቓ": 3946,
      "ስመይ": 3947,
      "ሰራዊ": 3948,
      "ላውያን": 3949,
      "ልደት": 3950,
      "ሰላምን": 3951,
      "ማሪ": 3952,
      "ቶተንሃም": 3953,
      "ንኽን": 3954,
      "ወሊ": 3955,
      "ፈለጠ": 3956,
      "ጸባርቕ": 3957,
      "ብእኡ": 3958,
      "ለዓለ": 3959,
      "ፍታት": 3960,
      "ኣቢላ": 3961,
      "ኣገደ": 3962,
      "ሃሪ": 3963,
      "ዝነበርኩ": 3964,
      "እቲኣ": 3965,
      "ህይወቱ": 3966,
      "ኣስዒ": 3967,
      "ትቕ": 3968,
      "ግሩ": 3969,
      "ኤለክትሪክ": 3970,
      "ጸሊም": 3971,
      "ስንኩ": 3972,
      "ፍልጠትን": 3973,
      "ደልዮ": 3974,
      "ኣምባሳደር": 3975,
      "መብርሂ": 3976,
      "በዓ": 3977,
      "ሓሶት": 3978,
      "መዐ": 3979,
      "ይገልጹ": 3980,
      "ልኩም": 3981,
      "ክዮ": 3982,
      "ኵነታት": 3983,
      "ዳይረክተር": 3984,
      "ክመጽእ": 3985,
      "ኣገል": 3986,
      "ሕሉፍ": 3987,
      "ሓቱ": 3988,
      "ኣምን": 3989,
      "ሽታ": 3990,
      "ዩሮ": 3991,
      "ሓጢኣት": 3992,
      "ስው": 3993,
      "እስከ": 3994,
      "ሕብር": 3995,
      "ፍስሃየ": 3996,
      "ልኻ": 3997,
      "ርቡ": 3998,
      "ፋብ": 3999,
      "ዑደት": 4000,
      "ጠቐ": 4001,
      "ምስላ": 4002,
      "ሃገረ": 4003,
      "ጼን": 4004,
      "ምስሊ": 4005,
      "ብልጫ": 4006,
      "ሞራ": 4007,
      "ዘይብሎም": 4008,
      "ዝዓይ": 4009,
      "ጭት": 4010,
      "ተወሊ": 4011,
      "ኢራን": 4012,
      "ጕዕዞ": 4013,
      "ዝርዝር": 4014,
      "ቱሪ": 4015,
      "ነጥብታት": 4016,
      "ከሳሲት": 4017,
      "ሳሙኤል": 4018,
      "በለኒ": 4019,
      "ፖለቲካ": 4020,
      "ለንስ": 4021,
      "እድሪስ": 4022,
      "የቐንየ": 4023,
      "ጠቓልል": 4024,
      "ንኩ": 4025,
      "ገሲ": 4026,
      "ገት": 4027,
      "ርእያ": 4028,
      "3ይ": 4029,
      "ጆን": 4030,
      "እግዚአብሔር": 4031,
      "ኣኻ": 4032,
      "መኒ": 4033,
      "ዝተዋ": 4034,
      "ራርባ": 4035,
      "ንቕሓት": 4036,
      "ሓርበ": 4037,
      "ክውን": 4038,
      "ጓስ": 4039,
      "ነብሱ": 4040,
      "ተዓዘብቲ": 4041,
      "ባራ": 4042,
      "ምስቶም": 4043,
      "ሕራይ": 4044,
      "55": 4045,
      "ሰና": 4046,
      "ሽከ": 4047,
      "ደጋጊ": 4048,
      "መኣዲ": 4049,
      "ሓውሲ": 4050,
      "ሱር": 4051,
      "ባየር": 4052,
      "ክላ": 4053,
      "ከምዘለዋ": 4054,
      "ስግኣት": 4055,
      "ሮና": 4056,
      "ጸብ": 4057,
      "ወጻኢታት": 4058,
      "ቁጽጻር": 4059,
      "ደራሲ": 4060,
      "ተዳ": 4061,
      "ብግብሪ": 4062,
      "ከራ": 4063,
      "ስክፍ": 4064,
      "ግስ": 4065,
      "ንምን": 4066,
      "ይዝከር": 4067,
      "ኣፍሊ": 4068,
      "ዝኸኣለ": 4069,
      "ክትቅ": 4070,
      "ረኺበ": 4071,
      "መለሰ": 4072,
      "እዋናት": 4073,
      "ሓኪም": 4074,
      "ቐል": 4075,
      "የስ": 4076,
      "ዑል": 4077,
      "ብለኒ": 4078,
      "ስኢ": 4079,
      "ነበሮ": 4080,
      "ዕዙ": 4081,
      "ዘት": 4082,
      "ጅን": 4083,
      "ሓባር": 4084,
      "ሕልና": 4085,
      "ቀሺ": 4086,
      "ባረን": 4087,
      "ዋዕላ": 4088,
      "ተሰሚ": 4089,
      "ዝኣተ": 4090,
      "ዝወጸ": 4091,
      "ቀደ": 4092,
      "ገድስ": 4093,
      "ውአ": 4094,
      "ብለል": 4095,
      "ስራሕን": 4096,
      "ኣዕሩኽ": 4097,
      "ደቆም": 4098,
      "ውጽኢቱ": 4099,
      "ጽጻር": 4100,
      "ውታ": 4101,
      "ንምዕባ": 4102,
      "ብህይወት": 4103,
      "ተስፋማርያም": 4104,
      "ዝዓለ": 4105,
      "ጀመረት": 4106,
      "ምህላዎም": 4107,
      "ጥቀመሉ": 4108,
      "ክጽ": 4109,
      "ብመልክዕ": 4110,
      "ብቑዕ": 4111,
      "እተወ": 4112,
      "ምምዕባል": 4113,
      "ስርሑ": 4114,
      "ድሩ": 4115,
      "ውልቃዊ": 4116,
      "ተገይሩ": 4117,
      "ደግ": 4118,
      "ሐይ": 4119,
      "ንስኻትኩም": 4120,
      "ረሉ": 4121,
      "ኣሜ": 4122,
      "ኣቋ": 4123,
      "ብምትሕ": 4124,
      "ትኻ": 4125,
      "ጋዝ": 4126,
      "ኣገባ": 4127,
      "እወታዊ": 4128,
      "ዲጋ": 4129,
      "መግዛእቲ": 4130,
      "ኮሎ": 4131,
      "ይሁዳ": 4132,
      "ያይ": 4133,
      "ቀሲ": 4134,
      "ዮስ": 4135,
      "ውሳኔ": 4136,
      "ፍጡ": 4137,
      "ገጺ": 4138,
      "ኣከፋ": 4139,
      "ዝንገረ": 4140,
      "ኣረኣ": 4141,
      "90": 4142,
      "ልምምድ": 4143,
      "ጸሓፍ": 4144,
      "ዘርጊ": 4145,
      "ርጉ": 4146,
      "ካልኢ": 4147,
      "ኣድራሻ": 4148,
      "ዓጽ": 4149,
      "ብስራት": 4150,
      "ምክትታል": 4151,
      "ዝተጠቕሰ": 4152,
      "ወጸ": 4153,
      "ክንክን": 4154,
      "እንግሊዛ": 4155,
      "ድሉ": 4156,
      "ኣርጀን": 4157,
      "ባህታ": 4158,
      "ክፍልታት": 4159,
      "ዘዕ": 4160,
      "ኣትዉ": 4161,
      "ጠንቅ": 4162,
      "ጴጥሮስ": 4163,
      "ጸሩ": 4164,
      "ኣንበብ": 4165,
      "ድራማ": 4166,
      "ዝመስ": 4167,
      "መዛዘሚ": 4168,
      "ሙቕ": 4169,
      "ዝምስ": 4170,
      "፡-": 4171,
      "ሎኒ": 4172,
      "በሃ": 4173,
      "ተሳትፎ": 4174,
      "ከይተረፈ": 4175,
      "መረዳ": 4176,
      "ጠም": 4177,
      "ፍሩ": 4178,
      "ሞይ": 4179,
      "ሓጋዚ": 4180,
      "ይወ": 4181,
      "ቓሕ": 4182,
      "በቶም": 4183,
      "ብንጹር": 4184,
      "ውርሻ": 4185,
      "መርሃዊ": 4186,
      "ይመስል": 4187,
      "ስፍራ": 4188,
      "ክትገብር": 4189,
      "ረትቲ": 4190,
      "ሓባራዊ": 4191,
      "ተሞ": 4192,
      "ንት": 4193,
      "በደ": 4194,
      "ዝነበርና": 4195,
      "የረድኡ": 4196,
      "ዝበጽሕ": 4197,
      "ጠመተ": 4198,
      "ቢራ": 4199,
      "ተጠቃ": 4200,
      "ኣገደስቲ": 4201,
      "ሰመረ": 4202,
      "ጽሩይ": 4203,
      "ፈትን": 4204,
      "መው": 4205,
      "ይመጽእ": 4206,
      "ነጥፍ": 4207,
      "ጃፓን": 4208,
      "ለና": 4209,
      "ርኪ": 4210,
      "ንዅ": 4211,
      "ራንን": 4212,
      "ክብርታት": 4213,
      "መረዳእታ": 4214,
      "ቁሩብ": 4215,
      "መንነት": 4216,
      "ጉድኣት": 4217,
      "ክንብል": 4218,
      "ርሕቀት": 4219,
      "ብዕለት": 4220,
      "ብኸምዚ": 4221,
      "ንህ": 4222,
      "ንቱ": 4223,
      "ዝርግ": 4224,
      "ይኸይድ": 4225,
      "ዝተዋህበ": 4226,
      "የልቦን": 4227,
      "ቀላ": 4228,
      "ስራሓት": 4229,
      "ክራማት": 4230,
      "ኣረኣእያ": 4231,
      "ዚኸውን": 4232,
      "ርእሳ": 4233,
      "ነበራ": 4234,
      "ቀጽሪ": 4235,
      "ኣልዒ": 4236,
      "ቢን": 4237,
      "ድሽ": 4238,
      "ፈላለ": 4239,
      "መሳርሕ": 4240,
      "ፈጣሪ": 4241,
      "ሰነድ": 4242,
      "መሻር": 4243,
      "ኣቲ": 4244,
      "ሕልፍ": 4245,
      "ልዕል": 4246,
      "በትን": 4247,
      "ስኒ": 4248,
      "ተቐማ": 4249,
      "ጓዓዝ": 4250,
      "ጽላ": 4251,
      "ንምቕ": 4252,
      "ዝተፈጸመ": 4253,
      "ንምርግጋጽ": 4254,
      "ረበት": 4255,
      "ንዅሉ": 4256,
      "ደደ": 4257,
      "ረም": 4258,
      "ኤት": 4259,
      "ጓለይ": 4260,
      "ክልቲኡ": 4261,
      "ህዝብታት": 4262,
      "ደረት": 4263,
      "ሃልዩ": 4264,
      "ሑን": 4265,
      "ካም": 4266,
      "ጋብር": 4267,
      "መብራህቱ": 4268,
      "ዝበላ": 4269,
      "ከይዱ": 4270,
      "ተማሂ": 4271,
      "ንዓና": 4272,
      "ተርፍ": 4273,
      "ሓቕ": 4274,
      "ዶን": 4275,
      "ባንክ": 4276,
      "ሓካይ": 4277,
      "ላይን": 4278,
      "የቕርብ": 4279,
      "ፖሊሲ": 4280,
      "ክወጽእ": 4281,
      "ጎም": 4282,
      "ልኪ": 4283,
      "ብዝምልከት": 4284,
      "ነጊ": 4285,
      "ኣሕምል": 4286,
      "ንኣሽቱ": 4287,
      "ሰስ": 4288,
      "ብመንገዲ": 4289,
      "ኤሪና": 4290,
      "ትዖ": 4291,
      "ስሩዕ": 4292,
      "ዩተር": 4293,
      "ጀመሩ": 4294,
      "መድረ": 4295,
      "ተኽሊ": 4296,
      "ፍሉጥ": 4297,
      "ልጣን": 4298,
      "ተው": 4299,
      "መጓዓዝያ": 4300,
      "ዘሕለ": 4301,
      "ፍርሒ": 4302,
      "ጥበባዊ": 4303,
      "ኣንስተይቲ": 4304,
      "ሊስ": 4305,
      "ኸሎ": 4306,
      "ዘጋጥም": 4307,
      "ልምዓ": 4308,
      "ለም": 4309,
      "ያዳ": 4310,
      "በቃ": 4311,
      "ከምእት": 4312,
      "ስትራተ": 4313,
      "ተረኺቡ": 4314,
      "500": 4315,
      "ማሲ": 4316,
      "ንግዳዊ": 4317,
      "ኮሚሽን": 4318,
      "ዝከኣል": 4319,
      "ቀኒ": 4320,
      "ኽእላ": 4321,
      "ጠቕላላ": 4322,
      "ተንቲ": 4323,
      "ስለዝዀነ": 4324,
      "ጽሕፍ": 4325,
      "ህይወትና": 4326,
      "ኣረዲ": 4327,
      "ወኒ": 4328,
      "ዕካ": 4329,
      "ኮት": 4330,
      "ያሽ": 4331,
      "ትሪ": 4332,
      "መርሕ": 4333,
      "ዘይም": 4334,
      "ኣሰር": 4335,
      "ሓዚ": 4336,
      "ላዕለዎት": 4337,
      "ክገ": 4338,
      "ሰብነት": 4339,
      "ወልዱ": 4340,
      "በዝ": 4341,
      "ዝኣተወ": 4342,
      "ንው": 4343,
      "ፍቕርን": 4344,
      "ክገብሩ": 4345,
      "ፍስሃ": 4346,
      "ተቘ": 4347,
      "ዘይብል": 4348,
      "ጐል": 4349,
      "ጸግ": 4350,
      "ዝተረኽበ": 4351,
      "ሽም": 4352,
      "ገሊኡ": 4353,
      "ጹን": 4354,
      "ይጥቀ": 4355,
      "ብዝለዓለ": 4356,
      "ዓርቢ": 4357,
      "ዄንካ": 4358,
      "ዝተዳለወ": 4359,
      "ብዓቢኡ": 4360,
      "ኣፋ": 4361,
      "ጁቬ": 4362,
      "ምሉኣት": 4363,
      "ጥንቃቐ": 4364,
      "ትንሳኤ": 4365,
      "ምዉ": 4366,
      "ተራእየ": 4367,
      "ተጫረትቲ": 4368,
      "ሙና": 4369,
      "ዝፈልጦ": 4370,
      "ገዚፍ": 4371,
      "ክኣቱ": 4372,
      "ክግበር": 4373,
      "ኽሳዕ": 4374,
      "ፎርድ": 4375,
      "ረጋግ": 4376,
      "ግዜን": 4377,
      "ክሰር": 4378,
      "መሸጣ": 4379,
      "ንምል": 4380,
      "ግሮ": 4381,
      "ዮናት": 4382,
      "ኢለን": 4383,
      "ዝባ": 4384,
      "ዝገጠ": 4385,
      "ኣዝያ": 4386,
      "ዝተመር": 4387,
      "ጥዕናን": 4388,
      "ጥሩ": 4389,
      "ረኸብ": 4390,
      "ደቀይ": 4391,
      "ቀጻል": 4392,
      "ክርክር": 4393,
      "ምፍላጥ": 4394,
      "ህላወ": 4395,
      "ሆም": 4396,
      "ኣካይዳ": 4397,
      "ናበይ": 4398,
      "ቦጦ": 4399,
      "ቅዲ": 4400,
      "ተቐባል": 4401,
      "ምስኣ": 4402,
      "ስሕ": 4403,
      "ቓን": 4404,
      "ጉን": 4405,
      "ኣዛዚ": 4406,
      "ይኹ": 4407,
      "ንኺ": 4408,
      "ጠባይ": 4409,
      "ከሰ": 4410,
      "ውሽጠይ": 4411,
      "ሕካ": 4412,
      "ረዝ": 4413,
      "እግዚኣብሔር": 4414,
      "ተኣማንነት": 4415,
      "ሚት": 4416,
      "ቓላት": 4417,
      "ዝቑ": 4418,
      "ገብረሚካኤል": 4419,
      "እንከለኹ": 4420,
      "ፍቱ": 4421,
      "ብምሉ": 4422,
      "ብርጌ": 4423,
      "ገሊጻ": 4424,
      "ፋብሪካ": 4425,
      "ኻኸ": 4426,
      "ብዘየ": 4427,
      "ክሰርሑ": 4428,
      "ወሲዱ": 4429,
      "ዘይንቀሳቐስ": 4430,
      "ጌርና": 4431,
      "ጸጉ": 4432,
      "ኣኸ": 4433,
      "ንፉ": 4434,
      "ገብረሉ": 4435,
      "ስለዝተሰውአ": 4436,
      "ሐት": 4437,
      "ድስ": 4438,
      "ብምምልካት": 4439,
      "ሃህላ": 4440,
      "መዘና": 4441,
      "ኮነን": 4442,
      "ክኣል": 4443,
      "ፍአ": 4444,
      "ምህላው": 4445,
      "ሳትን": 4446,
      "ንደቂ": 4447,
      "ዝወደ": 4448,
      "ዕልል": 4449,
      "ምህላዋ": 4450,
      "መሲሉ": 4451,
      "ክፉት": 4452,
      "ድሕር": 4453,
      "ኣትለታት": 4454,
      "ዓንቀጽ": 4455,
      "ማለ": 4456,
      "ጣል": 4457,
      "ባህጊ": 4458,
      "ኣብኣ": 4459,
      "ወካ": 4460,
      "ወጽ": 4461,
      "መርትዖ": 4462,
      "ፈልየ": 4463,
      "ጻዕር": 4464,
      "መጀመርያ": 4465,
      "ዝወጸሉ": 4466,
      "መበገሲ": 4467,
      "ኣምጺ": 4468,
      "ውሽጡ": 4469,
      "በልና": 4470,
      "ሩሉ": 4471,
      "ኖን": 4472,
      "እቶ": 4473,
      "ዝስዕቡ": 4474,
      "በልዎ": 4475,
      "ፍልስ": 4476,
      "ዳኒኤል": 4477,
      "ሓንሳእ": 4478,
      "ዝወሰ": 4479,
      "ታሪኻዊ": 4480,
      "ዩኒቨርሲቲ": 4481,
      "ህይወቶም": 4482,
      "ስቱ": 4483,
      "ዝፈልጥ": 4484,
      "በለቶ": 4485,
      "መልክቱ": 4486,
      "ወግዓዊ": 4487,
      "በጽሑ": 4488,
      "ወቕ": 4489,
      "ንዘይ": 4490,
      "ተሽከ": 4491,
      "ጻን": 4492,
      "ይካየድ": 4493,
      "ጽንብል": 4494,
      "ትፈልጥ": 4495,
      "ትሽ": 4496,
      "ድኦ": 4497,
      "ኣትለቲኮ": 4498,
      "ኣሽሓት": 4499,
      "**": 4500,
      "ስደተኛታት": 4501,
      "ኰረ": 4502,
      "ነይቲ": 4503,
      "ጎኒ": 4504,
      "ቀያ": 4505,
      "ኣህዛብ": 4506,
      "ሉይ": 4507,
      "ሓተተ": 4508,
      "ሰኑይ": 4509,
      "ቛንቋ": 4510,
      "ብሎምን": 4511,
      "እንቋዕ": 4512,
      "ዝገልጹ": 4513,
      "ሰሚና": 4514,
      "ራሪ": 4515,
      "ሕዛ": 4516,
      "ዲግሪ": 4517,
      "ምድብ": 4518,
      "ጊዕ": 4519,
      "ጸላም": 4520,
      "ድሒሩ": 4521,
      "ጀሚራ": 4522,
      "ጾታዊ": 4523,
      "ኽእልን": 4524,
      "ዝሰርሕ": 4525,
      "ዞን": 4526,
      "ዝብሃል": 4527,
      "ዝቖ": 4528,
      "ምትሕግጋ": 4529,
      "ስዕረት": 4530,
      "ክሌ": 4531,
      "41": 4532,
      "ርእዩ": 4533,
      "ኔል": 4534,
      "ባስ": 4535,
      "ካሜ": 4536,
      "ምነት": 4537,
      "ክረምቲ": 4538,
      "ሰኒ": 4539,
      "ጾታ": 4540,
      "ዘለኒ": 4541,
      "በጥ": 4542,
      "ስታድዩ": 4543,
      "ብላዕ": 4544,
      "ግዱ": 4545,
      "ዕንቅ": 4546,
      "ተባዕታይ": 4547,
      "ዝቐጸለ": 4548,
      "መጥባሕቲ": 4549,
      "ትግ": 4550,
      "ይሩ": 4551,
      "ዘይኰ": 4552,
      "ሰላሰል": 4553,
      "ሰማእታት": 4554,
      "ቢቢ": 4555,
      "ማና": 4556,
      "ሃቡ": 4557,
      "ትዮን": 4558,
      "መደረ": 4559,
      "ድላ": 4560,
      "ከምዘላ": 4561,
      "ከለኻ": 4562,
      "ክምስ": 4563,
      "ሳራ": 4564,
      "2011": 4565,
      "ግዳያት": 4566,
      "ብልዑል": 4567,
      "ዝሃብዎ": 4568,
      "ስክፍታ": 4569,
      "ናብዚ": 4570,
      "ብዝያዳ": 4571,
      "ተጸዊ": 4572,
      "ሚዛን": 4573,
      "ቅብኣ": 4574,
      "ብሃ": 4575,
      "ገስጋ": 4576,
      "ተሳታፍ": 4577,
      "ሊጋ": 4578,
      "ሽጋራ": 4579,
      "ኣመስ": 4580,
      "ኣዱ": 4581,
      "ብኦ": 4582,
      "ዋሚ": 4583,
      "ዛም": 4584,
      "ጻውዒ": 4585,
      "ንብዓት": 4586,
      "ካዳስ": 4587,
      "የትን": 4588,
      "ንኸይ": 4589,
      "መአገዲ": 4590,
      "ትው": 4591,
      "ሞቱ": 4592,
      "ርእዮም": 4593,
      "ሰጊ": 4594,
      "ጸው": 4595,
      "ከምዘየለ": 4596,
      "ካልኣይቲ": 4597,
      "ስንኩላን": 4598,
      "ሓልዮ": 4599,
      "ኣዒንቱ": 4600,
      "ሆቴል": 4601,
      "ናይጀርያ": 4602,
      "ዘስመዖ": 4603,
      "መንግስታት": 4604,
      "እኮ": 4605,
      "ተራኺ": 4606,
      "ኣሰራርሓ": 4607,
      "ኣረጋጊጾም": 4608,
      "ዲያ": 4609,
      "ጸበ": 4610,
      "ካዳስተር": 4611,
      "እንተድኣ": 4612,
      "ብሕጊ": 4613,
      "ጥንታዊ": 4614,
      "ዒራቕ": 4615,
      "ጎን": 4616,
      "ሃብታም": 4617,
      "ሕክምናዊ": 4618,
      "ንምት": 4619,
      "ቦጦሎኒ": 4620,
      "ተሎ": 4621,
      "ንቑ": 4622,
      "የግ": 4623,
      "ሓፋሽ": 4624,
      "ወሉ": 4625,
      "ተመሊሱ": 4626,
      "ቖት": 4627,
      "ክልና": 4628,
      "ነው": 4629,
      "ዝተሰርሐ": 4630,
      "ኣይነበረ": 4631,
      "ገይራ": 4632,
      "ቐይሕ": 4633,
      "ክመ": 4634,
      "ሃማመተ": 4635,
      "ኖታሪ": 4636,
      "ዝርርብ": 4637,
      "ቅላዕ": 4638,
      "ሸል": 4639,
      "ጫፍ": 4640,
      "ጥንሲ": 4641,
      "ኣሲ": 4642,
      "ወርድ": 4643,
      "ላዪ": 4644,
      "ጻጸር": 4645,
      "ቪድ": 4646,
      "ንኣስታት": 4647,
      "ዳውያን": 4648,
      "ንጉሰ": 4649,
      "ኬት": 4650,
      "እናበለት": 4651,
      "ተሰነይ": 4652,
      "ዛዕባ": 4653,
      "ጽኑዕ": 4654,
      "ብልክዕ": 4655,
      "ዓብዱ": 4656,
      "ገርም": 4657,
      "ብምምዝ": 4658,
      "ወያነ": 4659,
      "ረትን": 4660,
      "ስጕ": 4661,
      "ምሳኻ": 4662,
      "ይሓይሽ": 4663,
      "ጠባዊ": 4664,
      "ገብረመድህን": 4665,
      "09": 4666,
      "ቢቢሲ": 4667,
      "በዳ": 4668,
      "ሓካይም": 4669,
      "ተንሲ": 4670,
      "ኣነጺሩ": 4671,
      "ሕጽረት": 4672,
      "ላውን": 4673,
      "ይዕ": 4674,
      "እናተመ": 4675,
      "ኣበሃህላ": 4676,
      "ክምለስ": 4677,
      "እንኽእል": 4678,
      "እስጳኛ": 4679,
      "ቅንያት": 4680,
      "ስዒድ": 4681,
      "ኮታ": 4682,
      "ተማሃራይ": 4683,
      "ካስ": 4684,
      "ኸደ": 4685,
      "ግዴ": 4686,
      "ፈሩ": 4687,
      "ዝእ": 4688,
      "ንሓዋ": 4689,
      "ኣጠቓ": 4690,
      "ጊንዳዕ": 4691,
      "ጀሚሮም": 4692,
      "በሮ": 4693,
      "ድምጻ": 4694,
      "ሻቕ": 4695,
      "ዘሰ": 4696,
      "ጹጽ": 4697,
      "ዕማ": 4698,
      "ብቐዳምነት": 4699,
      "ኣዋልድ": 4700,
      "ጎረ": 4701,
      "እኽሊ": 4702,
      "ተዛሪቡ": 4703,
      "ደቃ": 4704,
      "ንጽባ": 4705,
      "ክዛረብ": 4706,
      "ተወሲ": 4707,
      "ኣምር": 4708,
      "ይበሃል": 4709,
      "ዝረአ": 4710,
      "ምድላዋት": 4711,
      "ብው": 4712,
      "ኤርም": 4713,
      "ዝሸ": 4714,
      "ድየ": 4715,
      "ገነት": 4716,
      "ሳሕል": 4717,
      "ኣስሚ": 4718,
      "ገብረሂወት": 4719,
      "ዝዓለመ": 4720,
      "ጐይ": 4721,
      "ርኩም": 4722,
      "ሻው": 4723,
      "ተዛዚሙ": 4724,
      "ረተ": 4725,
      "ስለዝነበረ": 4726,
      "ስትራተጂ": 4727,
      "ኣለው": 4728,
      "ነጥፉ": 4729,
      "ተስፋሚካኤል": 4730,
      "ቀልጢፉ": 4731,
      "ኢንዱ": 4732,
      "ኣሸ": 4733,
      "ዛይድ": 4734,
      "ሰምዑ": 4735,
      "ብቁ": 4736,
      "ዙር": 4737,
      "ዋዒ": 4738,
      "መጡ": 4739,
      "መኸተ": 4740,
      "ታደሰ": 4741,
      "በርት": 4742,
      "ይሕበር": 4743,
      "ኩዋ": 4744,
      "ባረንቱ": 4745,
      "ኣብተን": 4746,
      "ኮምፒ": 4747,
      "ጋሻ": 4748,
      "ጋዜጠ": 4749,
      "ብድሆታት": 4750,
      "ልቦና": 4751,
      "ብመ": 4752,
      "ከዋ": 4753,
      "ጥዕናዊ": 4754,
      "ዝተራእየ": 4755,
      "ሸለል": 4756,
      "ዘዘ": 4757,
      "ኣስመ": 4758,
      "ዝዀነት": 4759,
      "ዘሐ": 4760,
      "ኺሉ": 4761,
      "ንልዕሊ": 4762,
      "ኣዳም": 4763,
      "ክሓ": 4764,
      "ብወግዒ": 4765,
      "ዲቪዥን": 4766,
      "ነብሰይ": 4767,
      "የግዳስ": 4768,
      "ዋህዮ": 4769,
      "የድ": 4770,
      "ምዕራፍ": 4771,
      "ዓወታት": 4772,
      "44": 4773,
      "ይፈልጥ": 4774,
      "ይርከቡ": 4775,
      "ጽሩ": 4776,
      "ሓድነት": 4777,
      "ተቓወም": 4778,
      "ስዑ": 4779,
      "ምዃኑን": 4780,
      "ፍጥረት": 4781,
      "ቲክ": 4782,
      "ዝተኣሳ": 4783,
      "ነብሰ": 4784,
      "ደርግ": 4785,
      "ምዎ": 4786,
      "ዝምር": 4787,
      "መሳርሒታት": 4788,
      "ስታድዩም": 4789,
      "ርክባት": 4790,
      "ስሒ": 4791,
      "ምጽናሕ": 4792,
      "ልምዓታዊ": 4793,
      "ኮስ": 4794,
      "ዘፍቅ": 4795,
      "ተዓዋ": 4796,
      "ኣበርቲ": 4797,
      "ተቐማጦ": 4798,
      "ትለት": 4799,
      "እምን": 4800,
      "2010": 4801,
      "ሓመድን": 4802,
      "ቊጽሪ": 4803,
      "ዕለተ": 4804,
      "ብወገኖም": 4805,
      "መዲ": 4806,
      "ሃብቶም": 4807,
      "ውህደት": 4808,
      "ሊቃ": 4809,
      "ኤደን": 4810,
      "ህሪ": 4811,
      "ታውያን": 4812,
      "ዝህሉ": 4813,
      "ባዕለይ": 4814,
      "ገዳም": 4815,
      "ንኽልተ": 4816,
      "ኣከፋፋሊ": 4817,
      "ጐደና": 4818,
      "ዘይፈልጥ": 4819,
      "ንቕድሚ": 4820,
      "ብሓድሽ": 4821,
      "ሩኒ": 4822,
      "ቅነ": 4823,
      "ኒክ": 4824,
      "ንፈለማ": 4825,
      "ጌራ": 4826,
      "ጕድ": 4827,
      "ሓበሬታን": 4828,
      "እንከለና": 4829,
      "ቤትን": 4830,
      "ገጠ": 4831,
      "ጎይት": 4832,
      "ቀቢ": 4833,
      "ጽሙ": 4834,
      "ተኸላኻ": 4835,
      "ብዓወት": 4836,
      "ብውሕ": 4837,
      "ኣዴ": 4838,
      "ዊስ": 4839,
      "ሰማያት": 4840,
      "በጻ": 4841,
      "ዝሕግዝ": 4842,
      "ሓዋ": 4843,
      "ንምክል": 4844,
      "ወነን": 4845,
      "ዝኾና": 4846,
      "ተላብዩ": 4847,
      "ሃዲ": 4848,
      "ተመኩሮ": 4849,
      "ምልስ": 4850,
      "ማኪና": 4851,
      "ታተን": 4852,
      "ናትካ": 4853,
      "ተረዲ": 4854,
      "ሕርሻዊ": 4855,
      "ውስኽ": 4856,
      "ምምስ": 4857,
      "ሰይጣን": 4858,
      "ንቐ": 4859,
      "ዮርዳ": 4860,
      "ነባሪ": 4861,
      "ንጣ": 4862,
      "ዕዝ": 4863,
      "ዝሕብር": 4864,
      "ደበሳይ": 4865,
      "ብምትሕብባር": 4866,
      "ሽሽ": 4867,
      "ዘኽ": 4868,
      "አሎ": 4869,
      "ዝበለት": 4870,
      "ጀሚረ": 4871,
      "ቕርቡ": 4872,
      "ድዎ": 4873,
      "ገብረስላሴ": 4874,
      "ብደቂ": 4875,
      "ዝሓለፉ": 4876,
      "77": 4877,
      "በየነ": 4878,
      "ጭብ": 4879,
      "ዘለኣለም": 4880,
      "ዕድም": 4881,
      "ቆልዑ": 4882,
      "ቹእ": 4883,
      "ጻውዒት": 4884,
      "ተኸታታሊ": 4885,
      "ነና": 4886,
      "ደርቲ": 4887,
      "ጸባረ": 4888,
      "ጠለብ": 4889,
      "ኤርምያስ": 4890,
      "ኦል": 4891,
      "ገጢ": 4892,
      "ዓብደል": 4893,
      "ዘካየድ": 4894,
      "ገበነ": 4895,
      "ናውያን": 4896,
      "ናውቲ": 4897,
      "ጸዊዑ": 4898,
      "ምርግጋጽ": 4899,
      "ክወስ": 4900,
      "ስለዝተ": 4901,
      "ብልን": 4902,
      "ዘተኰረ": 4903,
      "ሰላምታ": 4904,
      "ዝሽ": 4905,
      "ምህር": 4906,
      "መሓዛ": 4907,
      "ዓራት": 4908,
      "ዝዳ": 4909,
      "ወለድ": 4910,
      "ርኽ": 4911,
      "ረና": 4912,
      "ክርአ": 4913,
      "እግሩ": 4914,
      "ኣዕዋ": 4915,
      "ርብዒ": 4916,
      "እንተዘይቀሪቡ": 4917,
      "በደል": 4918,
      "ህይወታ": 4919,
      "ግባእን": 4920,
      "ሓጥ": 4921,
      "ብዓይ": 4922,
      "ዲኺ": 4923,
      "ኮሚተ": 4924,
      "ረቛሒታት": 4925,
      "ተመናይ": 4926,
      "ትርጕ": 4927,
      "ደገና": 4928,
      "ዕጽ": 4929,
      "ዕዎ": 4930,
      "ጸንሑ": 4931,
      "ጽንዓት": 4932,
      "ክቡ": 4933,
      "ፍራን": 4934,
      "ሃማመተኤ": 4935,
      "ታትካ": 4936,
      "ኣትለት": 4937,
      "ቴማ": 4938,
      "ቅልጡፍ": 4939,
      "ዝፈት": 4940,
      "ጕዳይ": 4941,
      "መደም": 4942,
      "ከከም": 4943,
      "ሓቢራ": 4944,
      "ምስማዕ": 4945,
      "ከብቲ": 4946,
      "ን30": 4947,
      "ከቶ": 4948,
      "ድንግል": 4949,
      "ተጠቀ": 4950,
      "ጽዕር": 4951,
      "ታቱን": 4952,
      "ጸልማት": 4953,
      "ብሄ": 4954,
      "ነብሲ": 4955,
      "ተኸስተ": 4956,
      "ህይወተይ": 4957,
      "ኩነት": 4958,
      "ዘድልዮ": 4959,
      "ሜሮን": 4960,
      "ይቐ": 4961,
      "ተዓዚ": 4962,
      "ተቐባልነት": 4963,
      "ቅብ": 4964,
      "2020": 4965,
      "ዝብሎ": 4966,
      "ደጊም": 4967,
      "42": 4968,
      "ክታር": 4969,
      "ነብስኻ": 4970,
      "ሲቪላዊ": 4971,
      "ኤች": 4972,
      "ዚርከብ": 4973,
      "ረቲ": 4974,
      "ዕግ": 4975,
      "ሽኮር": 4976,
      "ምትእስ": 4977,
      "፡፡": 4978,
      "ባርሳ": 4979,
      "ክበጽሕ": 4980,
      "መዓኒ": 4981,
      "ከምዝነበረ": 4982,
      "46": 4983,
      "ዋርያት": 4984,
      "ፈጢሩ": 4985,
      "ማህሰይቲ": 4986,
      "ኣስዒቡ": 4987,
      "48": 4988,
      "ዝት": 4989,
      "እቶት": 4990,
      "ባንዳ": 4991,
      "ቀዲ": 4992,
      "300": 4993,
      "ተሪር": 4994,
      "ኤልያስ": 4995,
      "ይግበር": 4996,
      "ሬም": 4997,
      "ተመን": 4998,
      "ሚላን": 4999,
      "ሰገ": 5000,
      "የረ": 5001,
      "መብዛሕትኦም": 5002,
      "ገርግሽ": 5003,
      "ንጽባሒቱ": 5004,
      "ደሪ": 5005,
      "መሰና": 5006,
      "ወከልቲ": 5007,
      "ዓርከይ": 5008,
      "መዕ": 5009,
      "ምሒ": 5010,
      "ኣእት": 5011,
      "ብምፍ": 5012,
      "በይን": 5013,
      "ደሚ": 5014,
      "እንተነበረ": 5015,
      "ኢዳ": 5016,
      "ክነብር": 5017,
      "ለዉ": 5018,
      "ዘድ": 5019,
      "እንድዩ": 5020,
      "ልዕሊኡ": 5021,
      "ተገዳስነት": 5022,
      "ትገልጽ": 5023,
      "ክሳራ": 5024,
      "ኢየሱስ": 5025,
      "ሰስቲ": 5026,
      "ትኽ": 5027,
      "ከመ": 5028,
      "01": 5029,
      "ባታት": 5030,
      "ረጋገጽ": 5031,
      "ዘሎን": 5032,
      "ኣጋጣሚታት": 5033,
      "ኑክሌ": 5034,
      "ነይረን": 5035,
      "ርእስና": 5036,
      "ይቕረ": 5037,
      "ምላሽ": 5038,
      "ፍዎ": 5039,
      "እንደገና": 5040,
      "ምሳና": 5041,
      "ኣውቶቡስ": 5042,
      "ዚኽእል": 5043,
      "ኣፍን": 5044,
      "ስፍሓት": 5045,
      "ጽድ": 5046,
      "ድልዮ": 5047,
      "ዝካየ": 5048,
      "ንደሓር": 5049,
      "ዘዳ": 5050,
      "ኣስተዋ": 5051,
      "መርኣያ": 5052,
      "ንመጀመር": 5053,
      "ጸዓ": 5054,
      "ያእ": 5055,
      "ክብደት": 5056,
      "ሃርን": 5057,
      "ዝሓትት": 5058,
      "ይትረፍ": 5059,
      "ን10": 5060,
      "ይዱ": 5061,
      "ተገን": 5062,
      "ኩስ": 5063,
      "ተጸሚ": 5064,
      "ውዳበ": 5065,
      "ሪፓብሊክ": 5066,
      "ተዳል": 5067,
      "ማዕበል": 5068,
      "65": 5069,
      "ሸይ": 5070,
      "ህሞት": 5071,
      "ዝጅምር": 5072,
      "ኣይነበሮን": 5073,
      "ብመንጽር": 5074,
      "ሬታ": 5075,
      "ድራር": 5076,
      "ጉያ": 5077,
      "ተንተንቲ": 5078,
      "ርናዕ": 5079,
      "ተዋሳ": 5080,
      "ዓበት": 5081,
      "ሃገራውያን": 5082,
      "እንተዀይኑ": 5083,
      "ኣቱም": 5084,
      "ሌዳ": 5085,
      "ጀራ": 5086,
      "ደሙ": 5087,
      "ዝቘ": 5088,
      "ብንያም": 5089,
      "ወታሃደ": 5090,
      "ዝተዓወ": 5091,
      "ክርከብ": 5092,
      "ጋላ": 5093,
      "ረኽባ": 5094,
      "ገብረመስቀል": 5095,
      "ዳኛ": 5096,
      "ድሕነትን": 5097,
      "ቁል": 5098,
      "ማመ": 5099,
      "ንብዙሓት": 5100,
      "ዘኒ": 5101,
      "ልላፍ": 5102,
      "ዕድሚ": 5103,
      "ኣቢሎም": 5104,
      "ልዎ": 5105,
      "ብምውሳ": 5106,
      "ቅድሚት": 5107,
      "ርዞ": 5108,
      "ሙቐት": 5109,
      "ዓበየ": 5110,
      "ጎይትኦም": 5111,
      "ጾር": 5112,
      "ፈሳሲ": 5113,
      "ሴን": 5114,
      "ዝረኣየ": 5115,
      "መተካ": 5116,
      "ፈተውትን": 5117,
      "ፊክ": 5118,
      "ሃማደ": 5119,
      "ንስድራ": 5120,
      "ምራ": 5121,
      "ብ2": 5122,
      "ኣካላትና": 5123,
      "ኣንበብቲ": 5124,
      "75": 5125,
      "ጭር": 5126,
      "ብሩህ": 5127,
      "መምህራን": 5128,
      "መብጽ": 5129,
      "ትርኢ": 5130,
      "ኬንያ": 5131,
      "ይብ": 5132,
      "ድርብ": 5133,
      "ተሽከርከ": 5134,
      "መደምደም": 5135,
      "ለያ": 5136,
      "ምፍጻ": 5137,
      "ህያው": 5138,
      "ለባ": 5139,
      "ግጭት": 5140,
      "ተኻዪዱ": 5141,
      "ክጻወት": 5142,
      "ደኒ": 5143,
      "መደበ": 5144,
      "ጉጅለታት": 5145,
      "ንምህ": 5146,
      "መትከል": 5147,
      "ተሳቲ": 5148,
      "መታን": 5149,
      "ሳይን": 5150,
      "ብፍሉይ": 5151,
      "ወኪሉ": 5152,
      "ኮሎኔል": 5153,
      "ዒንታ": 5154,
      "ኢድካ": 5155,
      "ተወዳደርቲ": 5156,
      "ኺት": 5157,
      "ክትሕ": 5158,
      "መንእሰያትን": 5159,
      "ሞባይል": 5160,
      "ጓይ": 5161,
      "ኪሎሜተር": 5162,
      "05": 5163,
      "ንእስ": 5164,
      "ዘይቲ": 5165,
      "ተኸታ": 5166,
      "በረድ": 5167,
      "ኖት": 5168,
      "ደበና": 5169,
      "ገልግሉ": 5170,
      "ጽሒ": 5171,
      "ዝኣቱ": 5172,
      "ተመልሰ": 5173,
      "ክዝ": 5174,
      "ተቐሚ": 5175,
      "ኣመን": 5176,
      "ኣዝየ": 5177,
      "ሰባትን": 5178,
      "ኴንካ": 5179,
      "ሰነዳት": 5180,
      "ግርማ": 5181,
      "ብቴሌፎን": 5182,
      "ጡን": 5183,
      "ብሂ": 5184,
      "ርዱእ": 5185,
      "ብዘየገድስ": 5186,
      "ሄክታር": 5187,
      "ዋሕዲ": 5188,
      "ይርከ": 5189,
      "ጋህ": 5190,
      "ኣንቢ": 5191,
      "ነብያት": 5192,
      "ላስን": 5193,
      "ዝሓበረ": 5194,
      "ኰይነ": 5195,
      "እስራኤ": 5196,
      "ማድ": 5197,
      "ምኻ": 5198,
      "ብዓይኒ": 5199,
      "ይሰ": 5200,
      "ዕንወት": 5201,
      "የብሎምን": 5202,
      "ፍልስፍ": 5203,
      "ብፍቕሪ": 5204,
      "ውጥ": 5205,
      "ደመ": 5206,
      "ደድ": 5207,
      "ነይርና": 5208,
      "የቐንየልና": 5209,
      "ህንጸት": 5210,
      "መድሃኒ": 5211,
      "እተመ": 5212,
      "ዝገብሩ": 5213,
      "ምባሲ": 5214,
      "ንሓንቲ": 5215,
      "ጋኑ": 5216,
      "ሩስ": 5217,
      "ነስ": 5218,
      "ራይን": 5219,
      "ደረጃታት": 5220,
      "ውሑስ": 5221,
      "ከመይሲ": 5222,
      "ምድላው": 5223,
      "ዝተሰመዓና": 5224,
      "ሕድሪ": 5225,
      "ደርሆ": 5226,
      "ነፍስሄር": 5227,
      "ሻምብ": 5228,
      "ብጽቡቕ": 5229,
      "ብሓይሊ": 5230,
      "ከው": 5231,
      "ህናት": 5232,
      "ሓለዋ": 5233,
      "ክዀኑ": 5234,
      "መደምደምታ": 5235,
      "ባብን": 5236,
      "ንኪ": 5237,
      "ሕልፊ": 5238,
      "ኣስተዋጽኦ": 5239,
      "ጠኒ": 5240,
      "ኣለይ": 5241,
      "ሬድ": 5242,
      "ከብዲ": 5243,
      "ቀዳምነት": 5244,
      "ኣይመስለ": 5245,
      "ዞባዊ": 5246,
      "ቅዱሳን": 5247,
      "ኣዳራሽ": 5248,
      "ክእለ": 5249,
      "ዝውተር": 5250,
      "ሞንጎ": 5251,
      "የረድእ": 5252,
      "ፍእ": 5253,
      "ክንገብር": 5254,
      "ጥበበኛ": 5255,
      "ዝህል": 5256,
      "ምውሳድ": 5257,
      "ምሁ": 5258,
      "ኣውራ": 5259,
      "ብርጌድ": 5260,
      "ምብር": 5261,
      "ኣሮን": 5262,
      "ነሉ": 5263,
      "ጽሊ": 5264,
      "ቨንገር": 5265,
      "ለጥ": 5266,
      "ቕማ": 5267,
      "ውቅያ": 5268,
      "ንምባል": 5269,
      "ምርካብ": 5270,
      "ዝቐርብ": 5271,
      "ጸሎ": 5272,
      "ምጽእ": 5273,
      "ምህናጽ": 5274,
      "ዮርዳኖስ": 5275,
      "ሓላለ": 5276,
      "ዌስት": 5277,
      "ኣሎኹ": 5278,
      "ተመዝጊቡ": 5279,
      "ስልኪ": 5280,
      "ሕርቃን": 5281,
      "ጸይ": 5282,
      "ስርዓ": 5283,
      "ቃና": 5284,
      "ቤቶም": 5285,
      "መንደቕ": 5286,
      "ደሞዝ": 5287,
      "ተኣም": 5288,
      "ባዕላ": 5289,
      "ኣይተረ": 5290,
      "ባዕልኻ": 5291,
      "ጎዳይ": 5292,
      "ዩክ": 5293,
      "ጓለንስ": 5294,
      "ኣንበሳ": 5295,
      "ሻምብቆ": 5296,
      "መኮነን": 5297,
      "ኤክስ": 5298,
      "ደብረ": 5299,
      "ሪስ": 5300,
      "ገልጾ": 5301,
      "ኣገዳስነ": 5302,
      "ተዓዊታ": 5303,
      "ደየ": 5304,
      "ተክ": 5305,
      "ዘይኮ": 5306,
      "ሃብተማ": 5307,
      "ዝፈጥር": 5308,
      "ገይርካ": 5309,
      "ጸጋም": 5310,
      "ኣትለቲክስ": 5311,
      "ትግረ": 5312,
      "ኣቐዲሞም": 5313,
      "ኮይነን": 5314,
      "ሓንጎል": 5315,
      "ተጻዊ": 5316,
      "ተጸበ": 5317,
      "ወሰደ": 5318,
      "ክጸንሕ": 5319,
      "ዓሰብ": 5320,
      "መቕደስ": 5321,
      "ሓራጅ": 5322,
      "ውልቂ": 5323,
      "ኣይሁድ": 5324,
      "ገብረማርያም": 5325,
      "ስትራልያ": 5326,
      "ኮይነ": 5327,
      "ኢሉኒ": 5328,
      "ተባሂሎም": 5329,
      "ግባረ": 5330,
      "የብልናን": 5331,
      "ዘይሕ": 5332,
      "ራውን": 5333,
      "ዕጥ": 5334,
      "ቕና": 5335,
      "ንምዃ": 5336,
      "ሃቦም": 5337,
      "ላቱ": 5338,
      "መስተን": 5339,
      "ሳው": 5340,
      "ንኹሎም": 5341,
      "መግብን": 5342,
      "ብግ": 5343,
      "ክትረክብ": 5344,
      "ኣሜሪካ": 5345,
      "ተገንዚ": 5346,
      "ዘካየደቶ": 5347,
      "ኤር": 5348,
      "ተኻይዱ": 5349,
      "ኣዒንቲ": 5350,
      "ሓዙ": 5351,
      "ወዮ": 5352,
      "ዘብል": 5353,
      "ክትከ": 5354,
      "ጸኒሓ": 5355,
      "ደልን": 5356,
      "ጽዑቕ": 5357,
      "ነቒ": 5358,
      "ነፍቅ": 5359,
      "ምቕራብ": 5360,
      "ኣሌ": 5361,
      "ኩነታ": 5362,
      "ክፈልጥ": 5363,
      "ካብኣቶም": 5364,
      "ብቕዓትን": 5365,
      "መሬትን": 5366,
      "ዓማዊ": 5367,
      "ፍሎ": 5368,
      "ብቕል": 5369,
      "ቀጠ": 5370,
      "ኔት": 5371,
      "ኾና": 5372,
      "መንግስት": 5373,
      "ለኪ": 5374,
      "ኣሰናዳ": 5375,
      "ሕድ": 5376,
      "ዓሪ": 5377,
      "ኣፍደገ": 5378,
      "ትምህርቶም": 5379,
      "ሰሌዳ": 5380,
      "ተሌፎን": 5381,
      "ዝሰርሑ": 5382,
      "ተወሰ": 5383,
      "ዘመዝገበ": 5384,
      "2009": 5385,
      "ድኻም": 5386,
      "ተካ": 5387,
      "ኣይግባእን": 5388,
      "ምዃነን": 5389,
      "ሕርሻን": 5390,
      "ፈጸ": 5391,
      "ብቁጽሪ": 5392,
      "ጽፍ": 5393,
      "ጎድኒ": 5394,
      "ዝሕብሩ": 5395,
      "ሊፉ": 5396,
      "ረኒ": 5397,
      "ዛት": 5398,
      "ኤፍሬም": 5399,
      "ጓለንስተይቲ": 5400,
      "ፍጽም": 5401,
      "ጸብለል": 5402,
      "ከምዝዓ": 5403,
      "ኣረጋጊጹ": 5404,
      "ሰሎሞን": 5405,
      "ብኽልተ": 5406,
      "ስዉኣት": 5407,
      "ንቕድሚት": 5408,
      "ሮሜ": 5409,
      "ኣልኮ": 5410,
      "ኣድላዪ": 5411,
      "ዝረኸበ": 5412,
      "ቐለ": 5413,
      "ረኣኹ": 5414,
      "ጥታዊ": 5415,
      "?'": 5416,
      "መሓላልፎ": 5417,
      "በራኺ": 5418,
      "ኣእምሮኣዊ": 5419,
      "ወሪዱ": 5420,
      "ቦር": 5421,
      "ዱቕ": 5422,
      "ዝግበ": 5423,
      "ፖርቱ": 5424,
      "ይህ": 5425,
      "ዓቕሊ": 5426,
      "ቦታኡ": 5427,
      "!'": 5428,
      "ሚሳይ": 5429,
      "ምኽንያታት": 5430,
      "ኣጥቃዓይ": 5431,
      "ፍተ": 5432,
      "ሰሉስ": 5433,
      "ስፖርትን": 5434,
      "ተበጊሱ": 5435,
      "ከልቢ": 5436,
      "43": 5437,
      "ቦምን": 5438,
      "መብ": 5439,
      "ጠጠ": 5440,
      "ዝተረኽቡ": 5441,
      "ይርአ": 5442,
      "ዕዉታት": 5443,
      "ኣፍሊጣ": 5444,
      "ኤምባሲ": 5445,
      "ንጥፈት": 5446,
      "እናበልኩ": 5447,
      "ኣዕዋፍ": 5448,
      "ሰፍ": 5449,
      "ኸምኡ": 5450,
      "ግዴታ": 5451,
      "ናፍ": 5452,
      "እንተላይ": 5453,
      "ንሰባት": 5454,
      "ኣወ": 5455,
      "ገፊ": 5456,
      "ትርኢት": 5457,
      "ኢትዮጵያን": 5458,
      "ልዩ": 5459,
      "ራረ": 5460,
      "ጽሉ": 5461,
      "ኣይኪ": 5462,
      "ብዕቱብ": 5463,
      "ሰሙ": 5464,
      "ከማ": 5465,
      "ክራይ": 5466,
      "ጽበት": 5467,
      "ስምዕ": 5468,
      "ሰኣ": 5469,
      "ከካይድ": 5470,
      "ዝበሃሉ": 5471,
      "እንከለኻ": 5472,
      "ነቱን": 5473,
      "እንከለዋ": 5474,
      "ዘለዎን": 5475,
      "ረኽበሉ": 5476,
      "ሓሳባ": 5477,
      "ማራቶን": 5478,
      "ሰኣን": 5479,
      "ምህዞ": 5480,
      "ብሓጺሩ": 5481,
      "ወነንቲ": 5482,
      "ንዓኣ": 5483,
      "ሃማደኤ": 5484,
      "መጺኦም": 5485,
      "ረአ": 5486,
      "ኣይር": 5487,
      "ዝፍጠር": 5488,
      "ዝገባ": 5489,
      "ብምት": 5490,
      "ኾይኑ": 5491,
      "ዘጠቓ": 5492,
      "52": 5493,
      "ውዋ": 5494,
      "ከታተል": 5495,
      "ስዩም": 5496,
      "ዓካ": 5497,
      "ዔት": 5498,
      "ምርድ": 5499,
      "ወጋ": 5500,
      "ቅሩብ": 5501,
      "ዶር": 5502,
      "ኣዒንታ": 5503,
      "ዝጽበ": 5504,
      "400": 5505,
      "የመልክቱ": 5506,
      "ጽሎ": 5507,
      "ርዋ": 5508,
      "ባርያ": 5509,
      "ሳዕሪ": 5510,
      "ዓንዲ": 5511,
      "ምንባሮም": 5512,
      "ነግረ": 5513,
      "ሽሮ": 5514,
      "ንምጽ": 5515,
      "ኣፍዓበት": 5516,
      "ንግስቲ": 5517,
      "ከላኸሊ": 5518,
      "ጋሪ": 5519,
      "ንመን": 5520,
      "ዘቦ": 5521,
      "ኢደይ": 5522,
      "ዓሳታት": 5523,
      "እዮብ": 5524,
      "ተሰሚዑ": 5525,
      "ኣመሓደ": 5526,
      "ምቁ": 5527,
      "ጀጋኑ": 5528,
      "ፒክ": 5529,
      "ምንባብ": 5530,
      "በልዕ": 5531,
      "ክምር": 5532,
      "ዝዋ": 5533,
      "መጽሔ": 5534,
      "ክርስትያናት": 5535,
      "ዝቲ": 5536,
      "ኣይትኽእልን": 5537,
      "ተኪኤ": 5538,
      "ዅን": 5539,
      "ሓፍተይ": 5540,
      "ካልኢት": 5541,
      "ምክልኻ": 5542,
      "ንገ": 5543,
      "ዘርኣይ": 5544,
      "ተዋህ": 5545,
      "ርክነት": 5546,
      "ኽሪ": 5547,
      "ድባር": 5548,
      "ልምድ": 5549,
      "እናኸ": 5550,
      "ሃገሮም": 5551,
      "ታሕቲ": 5552,
      "መማህራን": 5553,
      "ምጅማር": 5554,
      "ቅም": 5555,
      "ኣራ": 5556,
      "ኤም": 5557,
      "ኩላ": 5558,
      "ጽዒ": 5559,
      "ሮስ": 5560,
      "ሰሰ": 5561,
      "ብልሽ": 5562,
      "ንስን": 5563,
      "ምጽንሑ": 5564,
      "ብዘሎ": 5565,
      "መሰሉ": 5566,
      "ረቢ": 5567,
      "በልካ": 5568,
      "ስለዝሞቱ": 5569,
      "ኣካያ": 5570,
      "ወንጌ": 5571,
      "ስምዖ": 5572,
      "ጽንዕ": 5573,
      "ደሊኻ": 5574,
      "ሳልሰይቲ": 5575,
      "ጠፍእ": 5576,
      "ክመል": 5577,
      "ኣውስትራልያ": 5578,
      "ሃለወ": 5579,
      "ተቓወምቲ": 5580,
      "መኣዛ": 5581,
      "ተመረ": 5582,
      "ሓተት": 5583,
      "ክሩ": 5584,
      "ፊፋ": 5585,
      "በጃኻ": 5586,
      "ሓንጎ": 5587,
      "ኣገልግሎታት": 5588,
      "ዳግም": 5589,
      "ዝፈጸ": 5590,
      "ዕዱ": 5591,
      "ዝተሰም": 5592,
      "196": 5593,
      "ቀመ": 5594,
      "ምውጻእ": 5595,
      "ዘርእስታ": 5596,
      "ክቐርብ": 5597,
      "ተኣማ": 5598,
      "ዝገበሩ": 5599,
      "ልቓሕ": 5600,
      "ናትናኤል": 5601,
      "ሓጐ": 5602,
      "ራዝ": 5603,
      "ጋገር": 5604,
      "ምቁጽጻር": 5605,
      "ውግ": 5606,
      "ዘረ": 5607,
      "መጽሓፍቲ": 5608,
      "ዝተረፉ": 5609,
      "ኲሉ": 5610,
      "ድዮም": 5611,
      "ምትእስሳር": 5612,
      "ስማ": 5613,
      "ንኤሪና": 5614,
      "ኣኪ": 5615,
      "ብወኪ": 5616,
      "መኽሰብ": 5617,
      "ኖር": 5618,
      "ክርኢ": 5619,
      "ሙኒክ": 5620,
      "ባሕርን": 5621,
      "ቕል": 5622,
      "ማቴዎስ": 5623,
      "ኣድና": 5624,
      "ሚልዮናት": 5625,
      "ደሴታት": 5626,
      "ኣይከኣል": 5627,
      "ተመክሮ": 5628,
      "ዂሉ": 5629,
      "ዓም": 5630,
      "ዘገርም": 5631,
      "ጋግ": 5632,
      "ዘይነበረ": 5633,
      "ነፍሒ": 5634,
      "ኣነን": 5635,
      "ምእታው": 5636,
      "ሞትን": 5637,
      "ጠብ": 5638,
      "በረሎም": 5639,
      "ዝብላ": 5640,
      "ንምፍላጥ": 5641,
      "ተዛረበ": 5642,
      "ወልደሚካኤል": 5643,
      "ጥዑይ": 5644,
      "ንፋ": 5645,
      "ዘዋ": 5646,
      "ኽብቲ": 5647,
      "47": 5648,
      "ተኸሰስቲ": 5649,
      "ምጥቃም": 5650,
      "ምሕዝነት": 5651,
      "ወሰኸ": 5652,
      "ኢልኪ": 5653,
      "ርባ": 5654,
      "በቕ": 5655,
      "ስላሰ": 5656,
      "ቆርበት": 5657,
      "ብኹሉ": 5658,
      "ጀት": 5659,
      "ጸቢብ": 5660,
      "ዛዚ": 5661,
      "ፈጠ": 5662,
      "ዝተፈጥረ": 5663,
      "ዝውዕል": 5664,
      "ብናዮ": 5665,
      "ሰሓቕ": 5666,
      "ኮምፕ": 5667,
      "ከይደ": 5668,
      "ቦታን": 5669,
      "መተካእታ": 5670,
      "ተጸን": 5671,
      "....": 5672,
      "ዝጸንሐት": 5673,
      "ደብዳብ": 5674,
      "ትብዓት": 5675,
      "ማያት": 5676,
      "ንሓዋሩ": 5677,
      "ግኡ": 5678,
      "ፋርማሲ": 5679,
      "መከላኸሊ": 5680,
      "ዲዱ": 5681,
      "ከምዝግባእ": 5682,
      "ጠንቀ": 5683,
      "እገዳ": 5684,
      "ኣመዝጊቡ": 5685,
      "ንፍ": 5686,
      "ተጓዒ": 5687,
      "ተሳታፍነት": 5688,
      "ኣሰናዳኢ": 5689,
      "በጻሕ": 5690,
      "ደትን": 5691,
      "ብራቕ": 5692,
      "ምቹእ": 5693,
      "መሰኻኽር": 5694,
      "ለንን": 5695,
      "ምሕላፍ": 5696,
      "ጻወቱ": 5697,
      "ዘኽእል": 5698,
      "ክትን": 5699,
      "ዘለኺ": 5700,
      "ሕጋውያን": 5701,
      "ድሮስ": 5702,
      "ቻይ": 5703,
      "ቤተሰብን": 5704,
      "ሓላዊ": 5705,
      "ኣቕሪቡ": 5706,
      "ቋርጽ": 5707,
      "ሻም": 5708,
      "ዘካይድ": 5709,
      "ምሒር": 5710,
      "ርኢና": 5711,
      "መሰላት": 5712,
      "ከባቢኦም": 5713,
      "ቅሳ": 5714,
      "ህሃድ": 5715,
      "ዝወጽእ": 5716,
      "ጽሑፋ": 5717,
      "ጸኒሖም": 5718,
      "ብምውጻእ": 5719,
      "ምዝራብ": 5720,
      "ኣፍንጫ": 5721,
      "ትዝ": 5722,
      "ማይተመናይ": 5723,
      "ደርፍታት": 5724,
      "ተሰኪ": 5725,
      "ከበር": 5726,
      "ዘንጸባርቕ": 5727,
      "ሃብተማርያም": 5728,
      "ኮይን": 5729,
      "ተጻብኦ": 5730,
      "ደርቢ": 5731,
      "ክንከውን": 5732,
      "ሳንደር": 5733,
      "ተዋሂ": 5734,
      "ንምክልኻል": 5735,
      "ጠፈር": 5736,
      "ትራፊክ": 5737,
      "ኣንስቲ": 5738,
      "ወራሲት": 5739,
      "ዲፕሎማ": 5740,
      "ሜት": 5741,
      "ወላዲተይ": 5742,
      "ኣቋሪ": 5743,
      "ንበይ": 5744,
      "ራእይ": 5745,
      "ብለይ": 5746,
      "ዝተሓተ": 5747,
      "በርቲ": 5748,
      "ብጻይ": 5749,
      "ሓርበኛታት": 5750,
      "ክስተ": 5751,
      "ዓብዩ": 5752,
      "ሃበኒ": 5753,
      "ኣሎኒ": 5754,
      "2008": 5755,
      "እዝኒ": 5756,
      "ኣዱሊስ": 5757,
      "ነጥሪ": 5758,
      "ቲሉ": 5759,
      "ኣይኰንኩን": 5760,
      "ብሰላም": 5761,
      "ዓብደላ": 5762,
      "ዝስተ": 5763,
      "ጥርን": 5764,
      "ዝንቀሳቐ": 5765,
      "ስዉእ": 5766,
      "ተጣ": 5767,
      "ነማ": 5768,
      "ንዓለም": 5769,
      "ኣምኑ": 5770,
      "ፕሮፌ": 5771,
      "ምእታ": 5772,
      "ዝተር": 5773,
      "ጣት": 5774,
      "ገዲፉ": 5775,
      "ተሰማሚ": 5776,
      "ደለየ": 5777,
      "ድልየና": 5778,
      "ዳዕሽ": 5779,
      "ክንፊ": 5780,
      "ክልሰ": 5781,
      "ተሰዊ": 5782,
      "መብጽዓ": 5783,
      "ዝመረ": 5784,
      "ብምጽ": 5785,
      "ተልእ": 5786,
      "ተሽከርከርቲ": 5787,
      "ሕሳብ": 5788,
      "ፍልይ": 5789,
      "ዝበቕ": 5790,
      "ሰንዓ": 5791,
      "ኵሮ": 5792,
      "የማን": 5793,
      "ወልድ": 5794,
      "ወስደ": 5795,
      "ሞና": 5796,
      "ረኣዩ": 5797,
      "ቢንያ": 5798,
      "ተኸሲ": 5799,
      "ወለዱ": 5800,
      "መስርዕ": 5801,
      "ኪኖ": 5802,
      "ማሕሙድ": 5803,
      "ክፍለጥ": 5804,
      "ምሕረትኣብ": 5805,
      "ፈልጣ": 5806,
      "ዘተባብ": 5807,
      "ሓጋዝ": 5808,
      "ኢንዱስትሪ": 5809,
      "ኣኹ": 5810,
      "ምለም": 5811,
      "ተጠቀምቲ": 5812,
      "ኣረዲኦም": 5813,
      "ጅግን": 5814,
      "ዝጽዋዕ": 5815,
      "ኣገንዚ": 5816,
      "ላሕታ": 5817,
      "ክብሮም": 5818,
      "ገልቲ": 5819,
      "ሓላው": 5820,
      "ረቡዕ": 5821,
      "ሰዓብ": 5822,
      "ጫማ": 5823,
      "መለለ": 5824,
      "እብረ": 5825,
      "ቈርበት": 5826,
      "ዋኒን": 5827,
      "ዘይክእ": 5828,
      "ሳሕ": 5829,
      "ጕጅለ": 5830,
      "ንምእ": 5831,
      "ክፍሊት": 5832,
      "ጭዋዳ": 5833,
      "ላታት": 5834,
      "መሕ": 5835,
      "ድሕረ": 5836,
      "ወጋሕታ": 5837,
      "ርሕቕ": 5838,
      "ኣቡነ": 5839,
      "ቅትለት": 5840,
      "ኻር": 5841,
      "ቅድሜ": 5842,
      "ደቒቕን": 5843,
      "ሞተ": 5844,
      "መልኣኽ": 5845,
      "ካይዳ": 5846,
      "ኣርጀንቲና": 5847,
      "ኹስ": 5848,
      "የመልክት": 5849,
      "ጽዋእ": 5850,
      "ብምብ": 5851,
      "ዓርኩ": 5852,
      "ኣወሃ": 5853,
      "ከይከውን": 5854,
      "ተሰጋ": 5855,
      "ቅቡል": 5856,
      "ኣስቤ": 5857,
      "ዕለታዊ": 5858,
      "ሰሚናር": 5859,
      "ገስጋስ": 5860,
      "ዓመቱ": 5861,
      "መዓልትታት": 5862,
      "ጥሪት": 5863,
      "እንጌራ": 5864,
      "ትገብር": 5865,
      "ዘውዲ": 5866,
      "ዕዮን": 5867,
      "ዝመጻ": 5868,
      "እናሓ": 5869,
      "ቱሪዝም": 5870,
      "ኣማዕ": 5871,
      "ምብጻሕ": 5872,
      "ስዕብ": 5873,
      "ፍሊ": 5874,
      "ዝንቀሳቐስ": 5875,
      "ቓዊ": 5876,
      "ብዝተፈላለዩ": 5877,
      "መጐ": 5878,
      "ጉዳእቲ": 5879,
      "ኮምሽን": 5880,
      "ግዚኡ": 5881,
      "ልምዓትን": 5882,
      "ኣዚና": 5883,
      "ድባርዋ": 5884,
      "ሕጉስ": 5885,
      "ዘገልግል": 5886,
      "ብምሓዝ": 5887,
      "ሞያውያን": 5888,
      "02": 5889,
      "ኣእጋ": 5890,
      "መዳያት": 5891,
      "ሒዝካ": 5892,
      "ኦሎም": 5893,
      "ጡብ": 5894,
      "ህዝባ": 5895,
      "መብራህቲ": 5896,
      "ሪቱ": 5897,
      "ዓሶ": 5898,
      "ኣለኺ": 5899,
      "ተዛረብ": 5900,
      "ጉዳል": 5901,
      "ጉድለት": 5902,
      "የና": 5903,
      "ስተን": 5904,
      "ዕምባ": 5905,
      "ኣልማዝ": 5906,
      "ጥንቲ": 5907,
      "ፍጻሜ": 5908,
      "ተሓሳስ": 5909,
      "ኣመዝጊ": 5910,
      "ብወገና": 5911,
      "ስዊ": 5912,
      "ጽብቕ": 5913,
      "ብምዝ": 5914,
      "ክሎ": 5915,
      "ተገል": 5916,
      "ስምዒታት": 5917,
      "ብምቕራብ": 5918,
      "ሕቖ": 5919,
      "ይእ": 5920,
      "ዝተወሰነ": 5921,
      "ብምሉኡ": 5922,
      "ሕያ": 5923,
      "ዎምን": 5924,
      "እትታው": 5925,
      "ተኸሳሲት": 5926,
      "ስደት": 5927,
      "ኒካዊ": 5928,
      "መዓስከር": 5929,
      "ክና": 5930,
      "ኣነስ": 5931,
      "ናባይ": 5932,
      "ገብረእግዚኣብሄር": 5933,
      "ኣፍሪቃን": 5934,
      "ዝፍለ": 5935,
      "ይሕግ": 5936,
      "ቢንያም": 5937,
      "ምለሱ": 5938,
      "ነይርዎ": 5939,
      "ሰርሓሉ": 5940,
      "ፊደ": 5941,
      "ክፉእ": 5942,
      "ፓኪ": 5943,
      "ጠሚ": 5944,
      "ስረ": 5945,
      "ባና": 5946,
      "ፍቑ": 5947,
      "ውዕሎ": 5948,
      "መንገ": 5949,
      "ኤቨር": 5950,
      "ዘቡ": 5951,
      "ተፋ": 5952,
      "ጻዕርታት": 5953,
      "ስቲክ": 5954,
      "ስምዑ": 5955,
      "ረቱ": 5956,
      "እስራኤላውያን": 5957,
      "ማርያ": 5958,
      "ቪያ": 5959,
      "ዘውጽ": 5960,
      "ከምኡውን": 5961,
      "ውሽጥ": 5962,
      "ሓሰን": 5963,
      "ተንቀሳ": 5964,
      "ደቂኣንስትዮ": 5965,
      "ሱፐር": 5966,
      "ትደሊ": 5967,
      "ክወስድ": 5968,
      "ኣሃዱታት": 5969,
      "ራቢ": 5970,
      "ርነት": 5971,
      "ሰኪዔት": 5972,
      "ፓርሰል": 5973,
      "'፡": 5974,
      "ረድኤት": 5975,
      "4ይ": 5976,
      "እምብዛ": 5977,
      "ትዕግ": 5978,
      "ዓቐብ": 5979,
      "ትኡ": 5980,
      "ጆር": 5981,
      "ሃገራትን": 5982,
      "ሊና": 5983,
      "ምክያድ": 5984,
      "ንሰለስተ": 5985,
      "ኣዘራርባ": 5986,
      "ዉያን": 5987,
      "ፈቐ": 5988,
      "ኣምሪ": 5989,
      "ረኸቡ": 5990,
      "ንምዕዋት": 5991,
      "ምኻድ": 5992,
      "ትያት": 5993,
      "ፖል": 5994,
      "እናቐ": 5995,
      "ከምዘይኮነ": 5996,
      "ቶስ": 5997,
      "ንእግዚኣብሄር": 5998,
      "ከባቢኡ": 5999,
      "ኣተኣ": 6000,
      "ዘረድ": 6001,
      "ዘጸ": 6002,
      "መዳልያ": 6003,
      "ከላኸል": 6004,
      "ለምለም": 6005,
      "ኣቐዲማ": 6006,
      "ትምህርቱ": 6007,
      "ሜትር": 6008,
      "ተንስ": 6009,
      "ኣጸጋ": 6010,
      "ፋኖስ": 6011,
      "ምትእም": 6012,
      "ምንባራ": 6013,
      "ንዝነበረ": 6014,
      "ንባዕሉ": 6015,
      "ኹምን": 6016,
      "መርዓት": 6017,
      "መሓዛይ": 6018,
      "ኣጋጢሙ": 6019,
      "ሓቶ": 6020,
      "ሰፊሑ": 6021,
      "ዋሕዚ": 6022,
      "ኤለክትሮ": 6023,
      "ኣእዛ": 6024,
      "ዓሌታት": 6025,
      "ዕዙዝ": 6026,
      "ዘጠቓለለ": 6027,
      "ካፕ": 6028,
      "ንሓድሕዶም": 6029,
      "ካልኢትን": 6030,
      "ክረኽቡ": 6031,
      "ንመጻኢ": 6032,
      "ሄል": 6033,
      "ለድ": 6034,
      "ናው": 6035,
      "ዝደልዩ": 6036,
      "ቅልውላ": 6037,
      "ጭንቀት": 6038,
      "ሓሪ": 6039,
      "ኣደን": 6040,
      "ወለድና": 6041,
      "ኣተኲ": 6042,
      "ትጽቢ": 6043,
      "ነተ": 6044,
      "ዘዝ": 6045,
      "ዓርኪ": 6046,
      "ጌሩ": 6047,
      "ባንዴ": 6048,
      "ኣቦታት": 6049,
      "ዝገለጸ": 6050,
      "ኣቑር": 6051,
      "1ብ0": 6052,
      "ንስለ": 6053,
      "ካባይ": 6054,
      "ዝጠቐሰ": 6055,
      "ብማዕረ": 6056,
      "ፒኤስ": 6057,
      "ተዋፊ": 6058,
      "ልኡኽ": 6059,
      "ርያስ": 6060,
      "ሳቐ": 6061,
      "ዝሃበ": 6062,
      "ኣይመስለንን": 6063,
      "ትካላትን": 6064,
      "ኣጥቃዒ": 6065,
      "ቆጻጸ": 6066,
      "እኽእል": 6067,
      "ዘኪ": 6068,
      "ጊጹ": 6069,
      "እዚኦም": 6070,
      "መራኽብ": 6071,
      "ፈንቅል": 6072,
      "መኣዝ": 6073,
      "ረካ": 6074,
      "ኣበየ": 6075,
      "ንምምሕ": 6076,
      "መሰው": 6077,
      "ትርጕም": 6078,
      "ጎላ": 6079,
      "ዝተሸ": 6080,
      "ስምኦን": 6081,
      "ዝኸበር": 6082,
      "ዓቕሙ": 6083,
      "ኣገባባት": 6084,
      "መቸ": 6085,
      "ብግደ": 6086,
      "ጋሊ": 6087,
      "ተመዲ": 6088,
      "ሓጺን": 6089,
      "ዘቃበርኩምናን": 6090,
      "እንተተ": 6091,
      "መቐጸል": 6092,
      "ከድ": 6093,
      "ጽላት": 6094,
      "ሊባ": 6095,
      "ይሰርሕ": 6096,
      "ኽዎ": 6097,
      "ወስዶ": 6098,
      "ምትሕግጋዝ": 6099,
      "ዮላ": 6100,
      "ዝነበረሉ": 6101,
      "ብስነ": 6102,
      "ካርድ": 6103,
      "ሓበን": 6104,
      "ሓደጋታት": 6105,
      "ተልእኾ": 6106,
      "ንገልጽ": 6107,
      "ፍጽ": 6108,
      "ኣማኻ": 6109,
      "ገበሩ": 6110,
      "ጎስጓ": 6111,
      "ሰፈር": 6112,
      "ቤታዊ": 6113,
      "ብባዕ": 6114,
      "ባቡር": 6115,
      "ንበይኑ": 6116,
      "ደዊ": 6117,
      "ን20": 6118,
      "ፈረስ": 6119,
      "ኔርና": 6120,
      "ኣስፍ": 6121,
      "ተርታ": 6122,
      "መጓ": 6123,
      "ባዶ": 6124,
      "ቶማስ": 6125,
      "ዝሑ": 6126,
      "ብድምር": 6127,
      "ምምል": 6128,
      "ንወዲ": 6129,
      "ገበናዊ": 6130,
      "ጓድ": 6131,
      "ጠፊኡ": 6132,
      "ኣትዮም": 6133,
      "ኣውጽ": 6134,
      "ጂን": 6135,
      "፣-": 6136,
      "መትን": 6137,
      "ቀጸለ": 6138,
      "ግብራዊ": 6139,
      "ጁቬንቱ": 6140,
      "ፈተነታት": 6141,
      "ማሕበራት": 6142,
      "ክቱር": 6143,
      "የፍልጥ": 6144,
      "ጎዳይፍ": 6145,
      "ርእይዎ": 6146,
      "ምትሕብባር": 6147,
      "ዘጸናናዕኩምናን": 6148,
      "ነል": 6149,
      "ወደብ": 6150,
      "ምግባ": 6151,
      "ዝባን": 6152,
      "ጐይታይ": 6153,
      "ኣይኮኑን": 6154,
      "ስልጠናታት": 6155,
      "ሓዉ": 6156,
      "መዛሙር": 6157,
      "ክገልጽ": 6158,
      "ተተካ": 6159,
      "ፍራንስ": 6160,
      "እሱ": 6161,
      "ኣብራ": 6162,
      "እተካይዶ": 6163,
      "ኣተሓሕዛ": 6164,
      "ናታ": 6165,
      "ውም": 6166,
      "ብምእ": 6167,
      "ሰብኡ": 6168,
      "ዉሽ": 6169,
      "ማዕዶ": 6170,
      "ራኸብ": 6171,
      "ምውዳ": 6172,
      "ንብኡ": 6173,
      "ጸጸ": 6174,
      "ታእ": 6175,
      "ንህቢ": 6176,
      "መስፍን": 6177,
      "በስ": 6178,
      "ብከላ": 6179,
      "ርእሰይ": 6180,
      "ንኩም": 6181,
      "ኣደኡ": 6182,
      "ኩልና": 6183,
      "ዝተሰነ": 6184,
      "ጥልያን": 6185,
      "ንእስነት": 6186,
      "ይገብሩ": 6187,
      "ከምዝሓ": 6188,
      "ካበይ": 6189,
      "የጥ": 6190,
      "ዝንገረሉ": 6191,
      "ዩክሬን": 6192,
      "ሊብያ": 6193,
      "ኻዮ": 6194,
      "ምግላጽ": 6195,
      "ተታሒዙ": 6196,
      "መድረኻት": 6197,
      "ይበ": 6198,
      "እንተስ": 6199,
      "ኣስማት": 6200,
      "ነወ": 6201,
      "ሊቃውንቲ": 6202,
      "ወረደ": 6203,
      "ምምጻእ": 6204,
      "ሳንዱቕ": 6205,
      "መውት": 6206,
      "ኣድጊ": 6207,
      "ኣጠቓቕማ": 6208,
      "ወጥሪ": 6209,
      "ገብሪ": 6210,
      "ምድረ": 6211,
      "ካራ": 6212,
      "ሓረስታይ": 6213,
      "ካብኣ": 6214,
      "መጠኑ": 6215,
      "ስቴ": 6216,
      "ኣብቶም": 6217,
      "በጻሕቲ": 6218,
      "ብሰሪ": 6219,
      "ወደን": 6220,
      "ምዕባለን": 6221,
      "2ብ0": 6222,
      "ቅረብ": 6223,
      "ካሪ": 6224,
      "ዝውን": 6225,
      "ህይወትካ": 6226,
      "ብለካ": 6227,
      "ምጭ": 6228,
      "ጋት": 6229,
      "ብጫ": 6230,
      "ህና": 6231,
      "ን15": 6232,
      "ውዕሉ": 6233,
      "ራሓሉ": 6234,
      "እሙን": 6235,
      "ዝጎ": 6236,
      "ፈው": 6237,
      "ሱዳ": 6238,
      "ብዝዀነ": 6239,
      "ሳምራዊት": 6240,
      "ዓመትን": 6241,
      "ጥምት": 6242,
      "እንድሕር": 6243,
      "ስጕምቲ": 6244,
      "በረት": 6245,
      "ፈጥር": 6246,
      "ዝነበረን": 6247,
      "ዝያዊ": 6248,
      "ኣደታት": 6249,
      "ዘይብላ": 6250,
      "ንዕና": 6251,
      "ወተሃደር": 6252,
      "ሲነማ": 6253,
      "ዒራ": 6254,
      "ንዝቐ": 6255,
      "ፊልምታት": 6256,
      "ሰማያዊ": 6257,
      "መፍረ": 6258,
      "ንዋ": 6259,
      "2006": 6260,
      "ተልቲ": 6261,
      "የማናይ": 6262,
      "ዋወ": 6263,
      "ውሉድ": 6264,
      "ኣማን": 6265,
      "ክመር": 6266,
      "ንግድ": 6267,
      "ሬድዮ": 6268,
      "ዝተደ": 6269,
      "ገጀ": 6270,
      "መጻምድቲ": 6271,
      "ሕጉ": 6272,
      "መግብ": 6273,
      "ንዝያዳ": 6274,
      "ጥፍእ": 6275,
      "መቐጸልታ": 6276,
      "ሀት": 6277,
      "ዋህዮታት": 6278,
      "በድ": 6279,
      "ይዅን": 6280,
      "ዘመነ": 6281,
      "ዝወሰደ": 6282,
      "ካልኣይን": 6283,
      "ተኽለሃይማኖት": 6284,
      "ብደ": 6285,
      "ክንዮ": 6286,
      "ዝሓየለ": 6287,
      "ዝግብኦ": 6288,
      "ቀይዲ": 6289,
      "ሽሕን": 6290,
      "በብእዋኑ": 6291,
      "ድድ": 6292,
      "ማእለያ": 6293,
      "ሰበይቱ": 6294,
      "6ይ": 6295,
      "ዛእ": 6296,
      "ከባቢኣን": 6297,
      "ኤቨርተን": 6298,
      "ፈጻ": 6299,
      "ፎቶ": 6300,
      "ዛረቡ": 6301,
      "ገሱ": 6302,
      "ርግጸ": 6303,
      "ጎደናታት": 6304,
      "ሃይማኖታዊ": 6305,
      "ኣጸጋሚ": 6306,
      "መሃር": 6307,
      "ቅጥ": 6308,
      "ዝተጻሕ": 6309,
      "ዓመጽ": 6310,
      "ኣተሓሳሲ": 6311,
      "ኢንተርነት": 6312,
      "ንኻልእ": 6313,
      "ሕነ": 6314,
      "ገመድ": 6315,
      "ዝተረኽ": 6316,
      "ህዝብ": 6317,
      "ዮናታን": 6318,
      "ዘበር": 6319,
      "ሰናይት": 6320,
      "ቴድሮስ": 6321,
      "መስግ": 6322,
      "ኣቢልካ": 6323,
      "ምጉ": 6324,
      "ኣሰን": 6325,
      "ትምህርት": 6326,
      "ሰቲ": 6327,
      "ብሰፊሑ": 6328,
      "ዘመልክት": 6329,
      "ተወፋይነት": 6330,
      "ዲሉ": 6331,
      "ዝተገልጸ": 6332,
      "ብርኪ": 6333,
      "ብረሉ": 6334,
      "ካብን": 6335,
      "ሓወል": 6336,
      "ሞክራ": 6337,
      "ዘቢ": 6338,
      "ንመጀመርታ": 6339,
      "ዜማ": 6340,
      "ጊስ": 6341,
      "ብምጥ": 6342,
      "ቋንቋታት": 6343,
      "ንዅሎም": 6344,
      "ዝድር": 6345,
      "ያታዊ": 6346,
      "ዝኸፍአ": 6347,
      "ክፋላት": 6348,
      "ዚን": 6349,
      "ኣሰልጠንቲ": 6350,
      "መርሃዊት": 6351,
      "ረጸ": 6352,
      "የውሃንስ": 6353,
      "ሕልፎ": 6354,
      "2004": 6355,
      "ኣየናይ": 6356,
      "ብሓንሳብ": 6357,
      "ታልን": 6358,
      "ዮሃና": 6359,
      "ተኸፊ": 6360,
      "ሳዕቤኑ": 6361,
      "ዳሚ": 6362,
      "ሳምሶን": 6363,
      "ዘገድ": 6364,
      "ግሪኽ": 6365,
      "ዘመድ": 6366,
      "ተባሂላ": 6367,
      "ምፍጣር": 6368,
      "ዓታ": 6369,
      "ተዋስ": 6370,
      "መለክ": 6371,
      "ልስ": 6372,
      "ጋእ": 6373,
      "ጎዳ": 6374,
      "ግንዛብ": 6375,
      "ኣሎም": 6376,
      "የጋ": 6377,
      "እናተባህለ": 6378,
      "120": 6379,
      "ራድ": 6380,
      "ሰልጠንቲ": 6381,
      "ሮይ": 6382,
      "ወሰነ": 6383,
      "ፍልስፍና": 6384,
      "ተዘርጊ": 6385,
      "ገለጸ": 6386,
      "መሳጢ": 6387,
      "ኑክሌሳዊ": 6388,
      "ኣልታ": 6389,
      "ህጹጽ": 6390,
      "ሓሚ": 6391,
      "መጉዳእቲ": 6392,
      "ብሕማም": 6393,
      "ኦሮ": 6394,
      "ገፍ": 6395,
      "ዝተሃን": 6396,
      "ኣድህቦ": 6397,
      "ሕግታት": 6398,
      "ኮሚቴ": 6399,
      "ኣመሓደርቲ": 6400,
      "ከተን": 6401,
      "ክበ": 6402,
      "ግዝኣት": 6403,
      "ምትሕልላፍ": 6404,
      "ብምህላዉ": 6405,
      "08": 6406,
      "መሮ": 6407,
      "ምጥፋእ": 6408,
      "መስመ": 6409,
      "ዝላ": 6410,
      "ጌና": 6411,
      "መቸም": 6412,
      "ከፋ": 6413,
      "ኮሌ": 6414,
      "ገዛይ": 6415,
      "ከማል": 6416,
      "ንምብጻሕ": 6417,
      "ምትብባዕ": 6418,
      "58": 6419,
      "ከዋኽብቲ": 6420,
      "ጥሕ": 6421,
      "ጫካ": 6422,
      "ተኽላይ": 6423,
      "ተግ": 6424,
      "ነታትን": 6425,
      "ፈኒ": 6426,
      "ኣመጋ": 6427,
      "ጽልኢ": 6428,
      "ምምላስ": 6429,
      "ባንዴራ": 6430,
      "ጅም": 6431,
      "ትዕዝብ": 6432,
      "በለን": 6433,
      "ገጾም": 6434,
      "እስቲ": 6435,
      "ምሕሳብ": 6436,
      "ውሕጅ": 6437,
      "ረግ": 6438,
      "ክሕዝ": 6439,
      "ጥበብን": 6440,
      "ኤልሳ": 6441,
      "እጃም": 6442,
      "ኖህ": 6443,
      "ውጉ": 6444,
      "ማዕከን": 6445,
      "ንታውያን": 6446,
      "ብቐረባ": 6447,
      "03": 6448,
      "ነተይ": 6449,
      "ዓይኑ": 6450,
      "መንሽሮ": 6451,
      "ታተይ": 6452,
      "ጸጕ": 6453,
      "ኣተዉ": 6454,
      "ስሚ": 6455,
      "ኣክል": 6456,
      "ምስግና": 6457,
      "ገዲም": 6458,
      "ሓወ": 6459,
      "ቁም": 6460,
      "ፈታ": 6461,
      "ደልያ": 6462,
      "ተኣኪ": 6463,
      "ገብርኤል": 6464,
      "ብቕልጡፍ": 6465,
      "2007": 6466,
      "ጃልባ": 6467,
      "ኣግራ": 6468,
      "ጠነ": 6469,
      "ነብሳ": 6470,
      "ዝሓዘት": 6471,
      "ክሓትት": 6472,
      "ንምዕባይ": 6473,
      "ን28": 6474,
      "ሰላማዊ": 6475,
      "2ብ1": 6476,
      "ሽናል": 6477,
      "ትሕትና": 6478,
      "ምዝን": 6479,
      "ምምሕያሽ": 6480,
      "እዋእ": 6481,
      "ይዋ": 6482,
      "ጽገና": 6483,
      "84": 6484,
      "ጥካ": 6485,
      "ዝተመል": 6486,
      "ያእቆብ": 6487,
      "መእተ": 6488,
      "በዩ": 6489,
      "ንዳ": 6490,
      "ከአ": 6491,
      "ዝማ": 6492,
      "ዘይሕጋዊ": 6493,
      "ገይርና": 6494,
      "ኮሎም": 6495,
      "ወቲ": 6496,
      "ብምሃብ": 6497,
      "ቀረ": 6498,
      "ክኢሎም": 6499,
      "ምስትም": 6500,
      "ቻር": 6501,
      "ዝተባህሉ": 6502,
      "ትሽዓተ": 6503,
      "ሓቐ": 6504,
      "ኣይደለ": 6505,
      "ዝገደ": 6506,
      "ማሽ": 6507,
      "ምዝርጋሕ": 6508,
      "ዝዛረብ": 6509,
      "ዘካየድዎ": 6510,
      "ላታ": 6511,
      "ጻዕርን": 6512,
      "ሒዘን": 6513,
      "ንሶም": 6514,
      "እሙ": 6515,
      "ዓሻ": 6516,
      "ዝፍጸም": 6517,
      "ዋሪ": 6518,
      "ዝኸዱ": 6519,
      "ብምዃኖም": 6520,
      "ሞራል": 6521,
      "ያቱ": 6522,
      "እንተዀ": 6523,
      "ንምጥ": 6524,
      "ሃንደበ": 6525,
      "ንቤት": 6526,
      "ኣይክ": 6527,
      "ባርን": 6528,
      "መሰለ": 6529,
      "ሒዝና": 6530,
      "መጽናዕትታት": 6531,
      "ጣዕሚ": 6532,
      "ትነት": 6533,
      "ኣጉ": 6534,
      "ህሉው": 6535,
      "ሓለፈ": 6536,
      "ብምምጻእ": 6537,
      "ትዕግስቲ": 6538,
      "ብዕድመ": 6539,
      "ፊን": 6540,
      "ዝርዝ": 6541,
      "ክሕግ": 6542,
      "ርቂ": 6543,
      "ይግብ": 6544,
      "ኣስፊ": 6545,
      "ይግባይ": 6546,
      "ሰራዊትን": 6547,
      "ተመረቕቲ": 6548,
      "ኣልታሕሪ": 6549,
      "መመ": 6550,
      "ምፍራይ": 6551,
      "መለክዒ": 6552,
      "ፋኑኤል": 6553,
      "ለወሉ": 6554,
      "ጓሂ": 6555,
      "ዳሕረ": 6556,
      "መጽሔት": 6557,
      "ንምግላጽ": 6558,
      "ብዝር": 6559,
      "ጥርጣ": 6560,
      "ኣምል": 6561,
      "ስዑዲ": 6562,
      "!?": 6563,
      "ቓቕ": 6564,
      "ናእ": 6565,
      "ክትድ": 6566,
      "ትራምፕ": 6567,
      "ኣቑርደት": 6568,
      "ወሃብቲ": 6569,
      "ዱስ": 6570,
      "ኣካያዲ": 6571,
      "መሰውኢ": 6572,
      "ቊጠባዊ": 6573,
      "ቐሉ": 6574,
      "ሲል": 6575,
      "ተማቕ": 6576,
      "ኣበለ": 6577,
      "ምኽኣሉ": 6578,
      "ሚስ": 6579,
      "ዝተሰር": 6580,
      "ኣመሪካዊ": 6581,
      "ገዝኡ": 6582,
      "ወግዒ": 6583,
      "መጋባእያ": 6584,
      "ቀጻልነት": 6585,
      "2000": 6586,
      "ቴና": 6587,
      "ዒሉ": 6588,
      "ጽካ": 6589,
      "መንጽር": 6590,
      "ኣውዲ": 6591,
      "እንድዒ": 6592,
      "ለንደን": 6593,
      "ምዕብል": 6594,
      "ዘርኣየ": 6595,
      "ከንብ": 6596,
      "ሄለን": 6597,
      "መከራ": 6598,
      "ይህብ": 6599,
      "ኣትያ": 6600,
      "መቐረት": 6601,
      "ምጅማ": 6602,
      "ቀረበ": 6603,
      "ኣውቶቡ": 6604,
      "ፍጡር": 6605,
      "ንቲ": 6606,
      "ኩኻ": 6607,
      "ብውሕዱ": 6608,
      "መለለዪ": 6609,
      "ኣተወት": 6610,
      "ኣመጋግባ": 6611,
      "ሰረት": 6612,
      "መሰጋገ": 6613,
      "ከጋጥ": 6614,
      "ስለዝደለኹ": 6615,
      "ይበል": 6616,
      "ሮቤል": 6617,
      "ሶር": 6618,
      "ነሪ": 6619,
      "ጉይ": 6620,
      "ቕጽል": 6621,
      "ከፍ": 6622,
      "ሃሩ": 6623,
      "ተፈል": 6624,
      "ንነፍሲ": 6625,
      "ሳዕቤናት": 6626,
      "ጸጉሪ": 6627,
      "ላሕ": 6628,
      "ተንን": 6629,
      "ነበርኩ": 6630,
      "ሕሙማት": 6631,
      "ማቱ": 6632,
      "ዝሓደ": 6633,
      "ጐረ": 6634,
      "ኣብዘን": 6635,
      "ሰላሳ": 6636,
      "ዝጸና": 6637,
      "ከምዝዓጸና": 6638,
      "ሻውል": 6639,
      "ትብሎ": 6640,
      "ያኑ": 6641,
      "ፊሊ": 6642,
      "ኣድሓ": 6643,
      "ሰብኣይን": 6644,
      "ፊደላት": 6645,
      "ህራ": 6646,
      "ደድሕሪ": 6647,
      "ግዕ": 6648,
      "ብምምዝጋብ": 6649,
      "የዱ": 6650,
      "ሌላ": 6651,
      "መሎም": 6652,
      "ጓላ": 6653,
      "ዝፈጠ": 6654,
      "ዓላሚ": 6655,
      "ተወሰኽቲ": 6656,
      "ይገብሮ": 6657,
      "መደቀሲ": 6658,
      "ጁቬንቱስ": 6659,
      "ቑን": 6660,
      "ዱል": 6661,
      "ሰምዐ": 6662,
      "ሃሂ": 6663,
      "ታዕሊ": 6664,
      "ናስ": 6665,
      "ዘይከኣ": 6666,
      "ከምዝቐ": 6667,
      "ቐትሪ": 6668,
      "ህብቶ": 6669,
      "ማምዑ": 6670,
      "ሚዛ": 6671,
      "ትግባረ": 6672,
      "እብል": 6673,
      "ወልደገ": 6674,
      "85": 6675,
      "ይሮ": 6676,
      "ተጠር": 6677,
      "ምሳሌ": 6678,
      "ሃዋርያት": 6679,
      "ምቑ": 6680,
      "ድኹም": 6681,
      "ብምድዋል": 6682,
      "መፍትሒ": 6683,
      "ራውያን": 6684,
      "ዝህቦ": 6685,
      "ሩት": 6686,
      "ደሃ": 6687,
      "ፓራ": 6688,
      "ዘጸናናዕኩምና": 6689,
      "5ይ": 6690,
      "ኖምን": 6691,
      "ጣውላ": 6692,
      "ስንባ": 6693,
      "ተስፋኣለም": 6694,
      "ባእታታት": 6695,
      "ምፍል": 6696,
      "ኣፍቀ": 6697,
      "ዘጋጠሞ": 6698,
      "ፍቓደ": 6699,
      "በሉን": 6700,
      "ሳምን": 6701,
      "ስቓ": 6702,
      "ቴር": 6703,
      "እተፈላለ": 6704,
      "ምብህ": 6705,
      "ንምኽ": 6706,
      "ፍጻመታት": 6707,
      "ቕርቦ": 6708,
      "የብላን": 6709,
      "ይዕድም": 6710,
      "ታሽ": 6711,
      "ፉእ": 6712,
      "ንስራሕ": 6713,
      "ረየ": 6714,
      "ግደይ": 6715,
      "ሰምዓ": 6716,
      "54": 6717,
      "ምትን": 6718,
      "ሲሉ": 6719,
      "ዝበጽሑ": 6720,
      "ብወገነይ": 6721,
      "ኸለዉ": 6722,
      "ለኽ": 6723,
      "በላይ": 6724,
      "ባዕሎም": 6725,
      "ጠሊ": 6726,
      "ስነስርዓት": 6727,
      "ብቕዓቱ": 6728,
      "እነፍቅ": 6729,
      "ፍሽኽታ": 6730,
      "ነዝ": 6731,
      "ተወዳዳር": 6732,
      "ደሎ": 6733,
      "ክግበረሉ": 6734,
      "ሚእትን": 6735,
      "ኡይ": 6736,
      "ዓውድ": 6737,
      "ንምምዕባ": 6738,
      "ሓሙሻይ": 6739,
      "ጃት": 6740,
      "ሕጸ": 6741,
      "ምኽኣል": 6742,
      "እር": 6743,
      "ዝተሳተፍ": 6744,
      "ዝምድናታት": 6745,
      "ነጋሽ": 6746,
      "ገንዘብን": 6747,
      "ባለ": 6748,
      "እንዶ": 6749,
      "ንምውሓስ": 6750,
      "ወርሓዊ": 6751,
      "ተለቪዥን": 6752,
      "ጀላ": 6753,
      "መበቆ": 6754,
      "ነቐፌ": 6755,
      "ሄኖ": 6756,
      "ስማዕ": 6757,
      "ነቢ": 6758,
      "ድኡ": 6759,
      "ዱር": 6760,
      "ወዳደር": 6761,
      "ተብ": 6762,
      "ኒና": 6763,
      "ዲቪ": 6764,
      "ልብኻ": 6765,
      "ተመስገን": 6766,
      "ሊኻ": 6767,
      "ሌስተር": 6768,
      "ምዝገባ": 6769,
      "ሽኡ": 6770,
      "ኣጽኒ": 6771,
      "ሰሎና": 6772,
      "ትኸ": 6773,
      "ኮረ": 6774,
      "ይጠ": 6775,
      "ኢዮ": 6776,
      "ብሮት": 6777,
      "ኣዋጅ": 6778,
      "ለላ": 6779,
      "ልሙ": 6780,
      "ከዕል": 6781,
      "ዘበን": 6782,
      "ዥያ": 6783,
      "ከምዝኸ": 6784,
      "150": 6785,
      "መንግስቱ": 6786,
      "ወለዶታት": 6787,
      "ሽማግለታት": 6788,
      "ሓገዛ": 6789,
      "ቦል": 6790,
      "ዝተመስ": 6791,
      "ዘይከኣል": 6792,
      "ስለዘ": 6793,
      "ሳልስቲ": 6794,
      "ገበናት": 6795,
      "ሰርሖ": 6796,
      "ውዒሉ": 6797,
      "በጽሖ": 6798,
      "ዘርላንድ": 6799,
      "መዓላ": 6800,
      "ዝጸንሓ": 6801,
      "ዝሓልፍ": 6802,
      "ዝገጠሞ": 6803,
      "መሰጋገሪ": 6804,
      "ቀሊ": 6805,
      "ንዝብል": 6806,
      "አይ": 6807,
      "ተፈጢሩ": 6808,
      "ድያን": 6809,
      "ተማህ": 6810,
      "ክብርን": 6811,
      "ምክልኻልን": 6812,
      "ባልዕ": 6813,
      "ደቁን": 6814,
      "ኣፉ": 6815,
      "ክመስል": 6816,
      "ፓሪስ": 6817,
      "ሲት": 6818,
      "ኢዶም": 6819,
      "ዛረቦ": 6820,
      "ፕረስ": 6821,
      "ህዝብና": 6822,
      "ፈረንሳዊ": 6823,
      "ዝደለየ": 6824,
      "ቴለፎን": 6825,
      "ትመስል": 6826,
      "ምዕራባዊ": 6827,
      "ፓላስ": 6828,
      "ክብላ": 6829,
      "ሰሪሑ": 6830,
      "ዝወስድ": 6831,
      "ፈና": 6832,
      "2005": 6833,
      "ኣስፍሃ": 6834,
      "ትልሂ": 6835,
      "እስቲፋኖስ": 6836,
      "ሃኒ": 6837,
      "ተራት": 6838,
      "ኣዳል": 6839,
      "ጻዕቂ": 6840,
      "ክብርቲ": 6841,
      "ኣድማዒ": 6842,
      "ቆር": 6843,
      "ጁባ": 6844,
      "ጨናፍር": 6845,
      "በረራ": 6846,
      "ጥርዚ": 6847,
      "ዘለናዮ": 6848,
      "ሰሚዐ": 6849,
      "ዓጸ": 6850,
      "ትምህርቲን": 6851,
      "ታሪኻ": 6852,
      "ንፉዕ": 6853,
      "ዕጽፊ": 6854,
      "እፈልጥ": 6855,
      "ጥሒ": 6856,
      "ዓንኬ": 6857,
      "ተመሃሮን": 6858,
      "ንኸውን": 6859,
      "እኩም": 6860,
      "ዝጐ": 6861,
      "ነይማር": 6862,
      "ሆላንድ": 6863,
      "ለር": 6864,
      "ፍናን": 6865,
      "እትው": 6866,
      "ነይሩዎ": 6867,
      "ኣካየድ": 6868,
      "ተቐቢሉ": 6869,
      "ሳሚ": 6870,
      "በይትን": 6871,
      "ብኩም": 6872,
      "ታታት": 6873,
      "ስለዘለዎ": 6874,
      "ኣትክልቲ": 6875,
      "ንእስነ": 6876,
      "ቀዋሚ": 6877,
      "ኣንቲ": 6878,
      "ደምበ": 6879,
      "ውጽኢታዊ": 6880,
      "ገፊሕ": 6881,
      "ዃላ": 6882,
      "ጽዩ": 6883,
      "ዓለምን": 6884,
      "ዝረኣዩ": 6885,
      "ሚሳይል": 6886,
      "ቀው": 6887,
      "ቆጸራ": 6888,
      "ተሰን": 6889,
      "ታዕ": 6890,
      "ንብል": 6891,
      "ሓለወ": 6892,
      "ግዱሳት": 6893,
      "ምኡ": 6894,
      "ንወ": 6895,
      "ቅድስት": 6896,
      "ፍቕራዊ": 6897,
      "ንዓኺ": 6898,
      "ኣእዳው": 6899,
      "ማዲ": 6900,
      "ቆልዓ": 6901,
      "ዋዛ": 6902,
      "ኣቃው": 6903,
      "ዕሉ": 6904,
      "ጥራ": 6905,
      "ንታል": 6906,
      "ምጽሓፍ": 6907,
      "ዘረባኡ": 6908,
      "ገብራ": 6909,
      "ባርሰሎና": 6910,
      "ወጺኣ": 6911,
      "ንምፍታሕ": 6912,
      "ምምላ": 6913,
      "ክዳውን": 6914,
      "መገድ": 6915,
      "ዕደና": 6916,
      "ደቐ": 6917,
      "ላትኒ": 6918,
      "ካሉ": 6919,
      "ኰን": 6920,
      "ዓዳ": 6921,
      "ጢር": 6922,
      "ብምዃና": 6923,
      "ኣሰላ": 6924,
      "ዝህልዎ": 6925,
      "ካሜራ": 6926,
      "መናን": 6927,
      "ጽቡ": 6928,
      "የም": 6929,
      "ጐድኒ": 6930,
      "በቒዑ": 6931,
      "ቪላ": 6932,
      "ደሎም": 6933,
      "መሓላለፍ": 6934,
      "ቪች": 6935,
      "እንተረኺቡ": 6936,
      "ዝጸንሕ": 6937,
      "ቃር": 6938,
      "ብቦ": 6939,
      "ካብኦም": 6940,
      "መዘናግዒ": 6941,
      "ቤትካ": 6942,
      "ወታሃደራዊ": 6943,
      "ኢንስ": 6944,
      "ውድባት": 6945,
      "እያሱ": 6946,
      "ሚሊ": 6947,
      "ፈይ": 6948,
      "ፍወሳ": 6949,
      "መሻርኽቲ": 6950,
      "ምሂ": 6951,
      "ናብን": 6952,
      "ምብራቓዊ": 6953,
      "ቐትሉ": 6954,
      "ዝውንን": 6955,
      "ኣይደልን": 6956,
      "ብኣሉ": 6957,
      "ዕቱብ": 6958,
      "ኢሳቕ": 6959,
      "ሻድ": 6960,
      "ባክተር": 6961,
      "ሽያ": 6962,
      "ን25": 6963,
      "ሓደራ": 6964,
      "ዝተሰማ": 6965,
      "ረምቲ": 6966,
      "ሰገን": 6967,
      "ሕቕ": 6968,
      "ሽጉ": 6969,
      "ህቡብ": 6970,
      "ተዳልዩ": 6971,
      "ማዊት": 6972,
      "ዊን": 6973,
      "ገፈ": 6974,
      "ጽላል": 6975,
      "ዝዓቢ": 6976,
      "ባሕሪን": 6977,
      "ምዕባይ": 6978,
      "ምትእምማን": 6979,
      "ክገብሮ": 6980,
      "ስርናይ": 6981,
      "ኢልኩም": 6982,
      "ኣይከኣልኩን": 6983,
      "ወሓደ": 6984,
      "የኒ": 6985,
      "ካና": 6986,
      "ፍላ": 6987,
      "ዲሩ": 6988,
      "ሞያን": 6989,
      "ድኽነት": 6990,
      "ክስተት": 6991,
      "ዕሽ": 6992,
      "መዝግብ": 6993,
      "ሰንዓፈ": 6994,
      "እደሊ": 6995,
      "ዝተኣሳሰር": 6996,
      "ሓምድ": 6997,
      "ወጹ": 6998,
      "ዱብ": 6999,
      "መገሻ": 7000,
      "ብሕልፊ": 7001,
      "ምግባርን": 7002,
      "መእተዊ": 7003,
      "ቀብ": 7004,
      "ዘርአ": 7005,
      "ዩዎ": 7006,
      "ከይተሓ": 7007,
      "ምርድዳእ": 7008,
      "ማውን": 7009,
      "ቑር": 7010,
      "በርን": 7011,
      "ተረዲኡ": 7012,
      "ዕንጨ": 7013,
      "መላእኽ": 7014,
      "መጽናዕታዊ": 7015,
      "መሓዙት": 7016,
      "ተወሊዱ": 7017,
      "ምድርን": 7018,
      "ቅልውላው": 7019,
      "ኪድ": 7020,
      "ባቢሎን": 7021,
      "ሰበይትን": 7022,
      "መሓየ": 7023,
      "ኣይከኣለትን": 7024,
      "መዓት": 7025,
      "ኣጸዋ": 7026,
      "ተተሓ": 7027,
      "ቴሌ": 7028,
      "ኣይኰኑን": 7029,
      "ጥቀም": 7030,
      "መለሰት": 7031,
      "ስዒቡ": 7032,
      "መዓርፎ": 7033,
      "ን26": 7034,
      "ንስም": 7035,
      "ዝጠፍ": 7036,
      "ፒኤስጂ": 7037,
      "ነነ": 7038,
      "ዝሕበር": 7039,
      "ረስኒ": 7040,
      "ነግ": 7041,
      "ምቕባል": 7042,
      "በሪኽ": 7043,
      "ን6": 7044,
      "ክያስ": 7045,
      "ፈጠረ": 7046,
      "ፍልስጤ": 7047,
      "ሃጓ": 7048,
      "ሃስያ": 7049,
      "ሊዮ": 7050,
      "ዖን": 7051,
      "መርገጺ": 7052,
      "ኣስናን": 7053,
      "መዋቲ": 7054,
      "ንጹህ": 7055,
      "ሜዳኣ": 7056,
      "ምጉዳል": 7057,
      "ራብን": 7058,
      "ሸን": 7059,
      "ኰኑ": 7060,
      "ዓቂ": 7061,
      "ይጽበ": 7062,
      "ግዳም": 7063,
      "እናን": 7064,
      "ሄኖክ": 7065,
      "ኻልኣይ": 7066,
      "ፍጻም": 7067,
      "ክንድኡ": 7068,
      "ኽል": 7069,
      "ተሓጊ": 7070,
      "ካርመል": 7071,
      "ዓዝያ": 7072,
      "የሪ": 7073,
      "ተኻኢሉ": 7074,
      "ድልየካ": 7075,
      "ዕግበት": 7076,
      "ባጥ": 7077,
      "ተስፉ": 7078,
      "ተረፈ": 7079,
      "ዝሕግ": 7080,
      "ይነብር": 7081,
      "ቅኑ": 7082,
      "ንር": 7083,
      "ዘካይዶ": 7084,
      "ዝወረደ": 7085,
      "ሶምን": 7086,
      "ወንጌል": 7087,
      "ልፍ": 7088,
      "ድሙቕ": 7089,
      "ስንክልና": 7090,
      "እከይ": 7091,
      "ድሙ": 7092,
      "ክእለትን": 7093,
      "ኣሕሊፉ": 7094,
      "ለይትን": 7095,
      "56": 7096,
      "መኪ": 7097,
      "ሻል": 7098,
      "ባብራ": 7099,
      "ጋገረ": 7100,
      "ጽረ": 7101,
      "ደርሁ": 7102,
      "ረዳ": 7103,
      "ዛር": 7104,
      "የካ": 7105,
      "ይሓ": 7106,
      "ን24": 7107,
      "ተመሓላለ": 7108,
      "ተረፍ": 7109,
      "ረዲ": 7110,
      "ተመራጺ": 7111,
      "ረብሓታት": 7112,
      "ህርመት": 7113,
      "ኣገንዚቡ": 7114,
      "ክሳድ": 7115,
      "ተዓዋቲ": 7116,
      "ፌስቲቫል": 7117,
      "መሰረቱ": 7118,
      "ሃዋርያ": 7119,
      "ሳባ": 7120,
      "ቐር": 7121,
      "ኰስ": 7122,
      "ስለያ": 7123,
      "ቃዕ": 7124,
      "ዝተባ": 7125,
      "ዘለኹም": 7126,
      "ስርሓ": 7127,
      "ክነግረ": 7128,
      "ተግባራ": 7129,
      "ዳግመ": 7130,
      "እንግሊዛዊ": 7131,
      "ኣስመሮም": 7132,
      "ኣውን": 7133,
      "ፍስሃጽዮን": 7134,
      "ስለፍ": 7135,
      "ነድሪ": 7136,
      "ተመለ": 7137,
      "ኣጋይሽ": 7138,
      "ኣዲስ": 7139,
      "ጻጺ": 7140,
      "ምርሕ": 7141,
      "ኣይከኣልን": 7142,
      "ገበነኛ": 7143,
      "ሮት": 7144,
      "ኽልተ": 7145,
      "ብልሽውና": 7146,
      "ውሱን": 7147,
      "ተደሪ": 7148,
      "ክወሃብ": 7149,
      "ጽፍሒ": 7150,
      "ነዘን": 7151,
      "ዝተወልደ": 7152,
      "ሃንደበታዊ": 7153,
      "ቆስ": 7154,
      "ኣጕ": 7155,
      "ጎርዞ": 7156,
      "ህንጻታት": 7157,
      "ማታ": 7158,
      "ዕጫ": 7159,
      "ናጽነትን": 7160,
      "ተወፋይነትን": 7161,
      "ክገብረ": 7162,
      "ሰላሰለ": 7163,
      "ነፍሰ": 7164,
      "ዝበጽሐ": 7165,
      "ምቁር": 7166,
      "ኩርናዕ": 7167,
      "ኣንን": 7168,
      "ነብሶም": 7169,
      "ባውያን": 7170,
      "ወለደ": 7171,
      "ን5": 7172,
      "ጣሕ": 7173,
      "ጽፉ": 7174,
      "መድሃኔ": 7175,
      "በዓላት": 7176,
      "መማ": 7177,
      "ተረጋ": 7178,
      "ዓባ": 7179,
      "ከጋጥም": 7180,
      "ሉቃስ": 7181,
      "ቲራ": 7182,
      "ዋቱ": 7183,
      "ገሪ": 7184,
      "ጽጉ": 7185,
      "እናሰ": 7186,
      "ኤክስፖ": 7187,
      "ሰላስል": 7188,
      "ነጋሲ": 7189,
      "ከሲ": 7190,
      "ረኽሲ": 7191,
      "ፍልጠታዊ": 7192,
      "ክንድዚ": 7193,
      "ይዀኑ": 7194,
      "ማርክ": 7195,
      "ዝሞቱ": 7196,
      "ጋህዲ": 7197,
      "ኣጠ": 7198,
      "ይኽፈት": 7199,
      "ካላ": 7200,
      "ጸጋማይ": 7201,
      "ጽብቕቲ": 7202,
      "ን3": 7203,
      "ግሉ": 7204,
      "መልክዑ": 7205,
      "ርዕ": 7206,
      "ነጸ": 7207,
      "ሄዋን": 7208,
      "ብቛንቋ": 7209,
      "።'": 7210,
      "ነገስታት": 7211,
      "ተፈጺ": 7212,
      "ወፈራ": 7213,
      "ጌታ": 7214,
      "ኤውሮጳዊ": 7215,
      "ፕሎት": 7216,
      "ኣማኢት": 7217,
      "ሬና": 7218,
      "ሮሞ": 7219,
      "ቅጽል": 7220,
      "ን12": 7221,
      "ዋርድ": 7222,
      "ኣቢለ": 7223,
      "ታቶምን": 7224,
      "ለማ": 7225,
      "ዘፍር": 7226,
      "ዝተቓ": 7227,
      "ኣልኮላዊ": 7228,
      "ስሊ": 7229,
      "ን27": 7230,
      "ያታት": 7231,
      "ይደሊ": 7232,
      "ዝተላዕለ": 7233,
      "ተራኸ": 7234,
      "ዝረኸብ": 7235,
      "ብጾቱ": 7236,
      "ብዚ": 7237,
      "ን18": 7238,
      "ጭቡ": 7239,
      "ዓለባ": 7240,
      "ድልየት": 7241,
      "ምዕሩይ": 7242,
      "ዓሰርተው": 7243,
      "ለኻዊ": 7244,
      "ጥቡቕ": 7245,
      "ተቖጺሩ": 7246,
      "ተውህቦ": 7247,
      "ፓኪስታን": 7248,
      "ሕሱ": 7249,
      "ነቑ": 7250,
      "ነርስ": 7251,
      "ፈለግ": 7252,
      "ባጀት": 7253,
      "ታይን": 7254,
      "ጠሉ": 7255,
      "ጠለባት": 7256,
      "ብዝተኻ": 7257,
      "ህዝቢን": 7258,
      "ኣካዳሚ": 7259,
      "ምምዝ": 7260,
      "ሓወልቲ": 7261,
      "ብ19": 7262,
      "ምርም": 7263,
      "ዘርዚ": 7264,
      "ተዛሪ": 7265,
      "መርዓዊ": 7266,
      "ክኽእል": 7267,
      "51": 7268,
      "ረዚን": 7269,
      "ኮምፕዩተር": 7270,
      "ማንን": 7271,
      "ን29": 7272,
      "ገጥ": 7273,
      "ዘውት": 7274,
      "ይኹኑ": 7275,
      "ገዛው": 7276,
      "ኣህጉር": 7277,
      "ቍሩብ": 7278,
      "ዝሞተ": 7279,
      "ኣምልኾ": 7280,
      "ሓጊ": 7281,
      "ኩል": 7282,
      "በርግ": 7283,
      "ንግድን": 7284,
      "ዝሓዝ": 7285,
      "እስራኤልን": 7286,
      "ሌዋ": 7287,
      "ርዎም": 7288,
      "ኸን": 7289,
      "ወልደማርያም": 7290,
      "ሃስ": 7291,
      "ላድ": 7292,
      "ኣምላኽካ": 7293,
      "ምውሓስ": 7294,
      "መሊኡ": 7295,
      "ዝተረኽቡሉ": 7296,
      "ርግጸኛ": 7297,
      "የው": 7298,
      "ኣዘዝቲ": 7299,
      "ንዘለኣለም": 7300,
      "ፋይና": 7301,
      "ብርህ": 7302,
      "ሄም": 7303,
      "ደስታ": 7304,
      "ድግ": 7305,
      "ጠፈ": 7306,
      "ከምዘለዎም": 7307,
      "ኣወዳት": 7308,
      "ኮምፒዩተር": 7309,
      "ሽቲ": 7310,
      "ቀትን": 7311,
      "ድምቀት": 7312,
      "ታሕተዋ": 7313,
      "ፍሽኽ": 7314,
      "ንምትግባር": 7315,
      "ዑፍ": 7316,
      "ጻጻ": 7317,
      "ዝሰዓበ": 7318,
      "ኣቦኣ": 7319,
      "1990": 7320,
      "ምፍጻም": 7321,
      "ታዕሊም": 7322,
      "ሰቡ": 7323,
      "ቢሉ": 7324,
      "ክተሓ": 7325,
      "ፈልሲ": 7326,
      "ዝመልኦ": 7327,
      "ለገ": 7328,
      "ረጊ": 7329,
      "ግበሩ": 7330,
      "ወጺኦም": 7331,
      "ደፊ": 7332,
      "ዶምን": 7333,
      "ንጥፈታትን": 7334,
      "ዘራእቲ": 7335,
      "እንድየ": 7336,
      "ናብቶም": 7337,
      "ግብጻ": 7338,
      "እንግሊዝኛ": 7339,
      "99": 7340,
      "ከተመ": 7341,
      "ወፈ": 7342,
      "ድኩም": 7343,
      "ሓደሰ": 7344,
      "የብልካን": 7345,
      "ስኽ": 7346,
      "ብጠቕላላ": 7347,
      "ዙን": 7348,
      "ጎይታ": 7349,
      "ክትወጽእ": 7350,
      "ህዝቡ": 7351,
      "ስምዓኒ": 7352,
      "ምጥቃዕ": 7353,
      "ከዕ": 7354,
      "ክኒ": 7355,
      "ዮርክ": 7356,
      "ተጀሚሩ": 7357,
      "ነብዪ": 7358,
      "ኣሕምልትን": 7359,
      "ዓማዊል": 7360,
      "ማቲ": 7361,
      "ክትከይድ": 7362,
      "ብዅሉ": 7363,
      "ኣጠንቂ": 7364,
      "ኣስቴር": 7365,
      "ኪሩ": 7366,
      "ዜብ": 7367,
      "ኣትሪ": 7368,
      "ምግላ": 7369,
      "ክዳውንቲ": 7370,
      "ዕርክነት": 7371,
      "ጻድቕ": 7372,
      "ዝበልካ": 7373,
      "ገዛውቲ": 7374,
      "ጸንሓ": 7375,
      "ኮርፖ": 7376,
      "ኣቕሪቦም": 7377,
      "ሻቕሎት": 7378,
      "ብመንፈስ": 7379,
      "ምዕቡል": 7380,
      "ቁን": 7381,
      "ብቲ": 7382,
      "ይበጽሕ": 7383,
      "ክትፈልጥ": 7384,
      "ፈልቲ": 7385,
      "ዝቐነየ": 7386,
      "ሓበረ": 7387,
      "ሕልም": 7388,
      "ናውን": 7389,
      "ናህሪ": 7390,
      "ርእስ": 7391,
      "ብዙሃን": 7392,
      "ተስፋዝጊ": 7393,
      "ይመር": 7394,
      "ሓይልን": 7395,
      "ካብዞም": 7396,
      "ብሓዊ": 7397,
      "ካሕሳ": 7398,
      "ረታት": 7399,
      "ኒስ": 7400,
      "ደምን": 7401,
      "ናይተን": 7402,
      "ምምዝጋ": 7403,
      "ፈውሲ": 7404,
      "06": 7405,
      "ሳተፋ": 7406,
      "8ይ": 7407,
      "ለፍ": 7408,
      "ጽዎ": 7409,
      "ተኽለማርያም": 7410,
      "ሙሳ": 7411,
      "ኢደ": 7412,
      "ንምዝ": 7413,
      "መስግን": 7414,
      "ፍቓዱ": 7415,
      "ሃዋህ": 7416,
      "ቤላ": 7417,
      "ጽቲ": 7418,
      "ዝተረጋገጸ": 7419,
      "መረጋ": 7420,
      "ናቶም": 7421,
      "ተኽሉ": 7422,
      "ኩባንያታት": 7423,
      "ብመንግስቲ": 7424,
      "ይትን": 7425,
      "ኣስቤኮ": 7426,
      "53": 7427,
      "ቀራ": 7428,
      "ቈረ": 7429,
      "ባርዕ": 7430,
      "ብግዜ": 7431,
      "ኣስገ": 7432,
      "መሰረታ": 7433,
      "ቀጸላ": 7434,
      "ፍረት": 7435,
      "ስዎ": 7436,
      "ካናዳ": 7437,
      "ጊላ": 7438,
      "ነገራትን": 7439,
      "ደንቕ": 7440,
      "ጸኒሐ": 7441,
      "ዝኽኻር": 7442,
      "ን2": 7443,
      "\"፡": 7444,
      "ኪዀኑ": 7445,
      "ኣዝማ": 7446,
      "ዛዝ": 7447,
      "ምልውዋ": 7448,
      "ፍረታትን": 7449,
      "እዋናዊ": 7450,
      "ራህዋ": 7451,
      "ኢየ": 7452,
      "ክዎም": 7453,
      "ይኾኑ": 7454,
      "ጭሮ": 7455,
      "ልኢ": 7456,
      "ዘጽን": 7457,
      "ከምዘየ": 7458,
      "ተሓቢ": 7459,
      "ጸሓፍቲ": 7460,
      "ኣመስጊ": 7461,
      "ሰዱ": 7462,
      "ብኸፊል": 7463,
      "ሜላታት": 7464,
      "ምረ": 7465,
      "ቀላይ": 7466,
      "ናይዛ": 7467,
      "ዛንታታት": 7468,
      "ዕግር": 7469,
      "ጕል": 7470,
      "ሓምላይ": 7471,
      "መረጋገጺ": 7472,
      "ሞሮ": 7473,
      "ስድ": 7474,
      "ኵለን": 7475,
      "ረኺባ": 7476,
      "በዛ": 7477,
      "ጩራ": 7478,
      "ከኣሎ": 7479,
      "ተጸጊ": 7480,
      "ልዕሌ": 7481,
      "መግብታት": 7482,
      "ዓውድታት": 7483,
      "ህይወትን": 7484,
      "ኣካይዱ": 7485,
      "ልዳ": 7486,
      "ጋኒ": 7487,
      "ጽበታዊ": 7488,
      "1991": 7489,
      "ረቂ": 7490,
      "ጓና": 7491,
      "ኣምለ": 7492,
      "ላለዩ": 7493,
      "ማዕበለ": 7494,
      "ዝጥቀስ": 7495,
      "ሓሰብ": 7496,
      "ባራት": 7497,
      "ተጸበየ": 7498,
      "04": 7499,
      "ኑር": 7500,
      "እትሕ": 7501,
      "ተወዲ": 7502,
      "ትሕት": 7503,
      "መሓላልፍ": 7504,
      "ልቦም": 7505,
      "ማያዊ": 7506,
      "ምቍ": 7507,
      "ኸነ": 7508,
      "ጥዓ": 7509,
      "ፋፊ": 7510,
      "ዕላማኡ": 7511,
      "ጽሓ": 7512,
      "ተወከ": 7513,
      "ዘርኣዮ": 7514,
      "ሰሊ": 7515,
      "ኤውሮጳን": 7516,
      "ብልቢ": 7517,
      "ተመኲ": 7518,
      "ብዛዕባኡ": 7519,
      "ስድራቤታት": 7520,
      "ሕግን": 7521,
      "ቈል": 7522,
      "ኻብቲ": 7523,
      "ወናኒ": 7524,
      "ክተራት": 7525,
      "እምንቶ": 7526,
      "ኣባሻውል": 7527,
      "ወተሃደራ": 7528,
      "ሒዘዮ": 7529,
      "ማርቲ": 7530,
      "ቲም": 7531,
      "ውቅያኖስ": 7532,
      "ቅሳነት": 7533,
      "ብጀ": 7534,
      "ን4": 7535,
      "ኪቕ": 7536,
      "ዝጸል": 7537,
      "ኣጸቢቑ": 7538,
      "በይነይ": 7539,
      "ክሲኮ": 7540,
      "መኽፈቲ": 7541,
      "ኣውጺኡ": 7542,
      "ንዐ": 7543,
      "ወድና": 7544,
      "ጠት": 7545,
      "ማእከላይን": 7546,
      "በጊዕ": 7547,
      "ብማይ": 7548,
      "ዝነኣድ": 7549,
      "ብስራሕ": 7550,
      "ቱኒ": 7551,
      "ኤስያ": 7552,
      "ሽወደን": 7553,
      "ከሊ": 7554,
      "መጽሓ": 7555,
      "ዓዶም": 7556,
      "ኣይንኽእል": 7557,
      "ተሓቲ": 7558,
      "መስመራት": 7559,
      "መቱ": 7560,
      "ዘይከኣለ": 7561,
      "መጺአ": 7562,
      "ገምገም": 7563,
      "ወልፊ": 7564,
      "ዕጡቕ": 7565,
      "ጋዜጠኛ": 7566,
      "ኣይተር": 7567,
      "እናዓበየ": 7568,
      "ደይሊ": 7569,
      "ጥበበኛታት": 7570,
      "ሩም": 7571,
      "እናተሓ": 7572,
      "ወከፎም": 7573,
      "ውሽጥኻ": 7574,
      "ኣልታሕሪር": 7575,
      "ጓሉ": 7576,
      "ዘርኡ": 7577,
      "ወላዲትና": 7578,
      "ክግለጽ": 7579,
      "ን9": 7580,
      "ዝሑል": 7581,
      "ንጥዕና": 7582,
      "ን16": 7583,
      "ተጸዊዑ": 7584,
      "ይመስ": 7585,
      "ዝተሰለ": 7586,
      "በርበረ": 7587,
      "ዘውር": 7588,
      "ጦን": 7589,
      "ዝገበርዎ": 7590,
      "ጉር": 7591,
      "ተቐይሩ": 7592,
      "ዕስ": 7593,
      "ያታ": 7594,
      "ጸፍ": 7595,
      "ላይት": 7596,
      "ይቕሬታ": 7597,
      "ስነትን": 7598,
      "ጀሚርካ": 7599,
      "ረይቲ": 7600,
      "ከቡ": 7601,
      "ኣይኮንኩን": 7602,
      "ኣቝ": 7603,
      "ጉዳዩ": 7604,
      "ጽዕሩ": 7605,
      "መንግስታዊ": 7606,
      "ኣልዒሉ": 7607,
      "ሕዎ": 7608,
      "ንዝኾነ": 7609,
      "ጻርን": 7610,
      "ዓቕሞም": 7611,
      "ሕትት": 7612,
      "ህድኣት": 7613,
      "ዝተማህ": 7614,
      "ኣይስ": 7615,
      "ምጽዋዕ": 7616,
      "ባጤ": 7617,
      "ዝፈር": 7618,
      "ድፋ": 7619,
      "ካብዛ": 7620,
      "መጠንቀ": 7621,
      "ፍልልያት": 7622,
      "ካዳስተርን": 7623,
      "ብገዛእ": 7624,
      "ዝጸሓ": 7625,
      "ብምክያድ": 7626,
      "ሃባ": 7627,
      "ወጻእተ": 7628,
      "ሃድን": 7629,
      "ዝተወስደ": 7630,
      "እምነትን": 7631,
      "ወድቕ": 7632,
      "ኣተሓሳሲቡ": 7633,
      "ተቛ": 7634,
      "ኣድላይ": 7635,
      "ፈሊጠ": 7636,
      "57": 7637,
      "ሽግራት": 7638,
      "ቦሎ": 7639,
      "ሽንቲ": 7640,
      "ተፈጺሙ": 7641,
      "መኻ": 7642,
      "ሕንጻጽ": 7643,
      "ኣጣ": 7644,
      "ሳዕን": 7645,
      "ተዛማዲ": 7646,
      "ጎረባብ": 7647,
      "ልሳ": 7648,
      "ፓት": 7649,
      "መልከ": 7650,
      "ኣካዪ": 7651,
      "ይረኣዩ": 7652,
      "ድሉው": 7653,
      "ኣተዓ": 7654,
      "ስታል": 7655,
      "ንፍቕሪ": 7656,
      "ጐይታና": 7657,
      "ትህ": 7658,
      "ኣለኹም": 7659,
      "ይሕግዝ": 7660,
      "ሕታም": 7661,
      "ንጡፍ": 7662,
      "ዝተፈልየ": 7663,
      "ቅንኢ": 7664,
      "ፈላሚ": 7665,
      "ንሎሚ": 7666,
      "ኣስተን": 7667,
      "ዘርግሐ": 7668,
      "ንዓበይቲ": 7669,
      "ዝዓይነቱ": 7670,
      "መዛሙርቱ": 7671,
      "ሰብኡት": 7672,
      "ዊል": 7673,
      "ብፍጹም": 7674,
      "ቁጽጽር": 7675,
      "ብምምልላስ": 7676,
      "ገጀረት": 7677,
      "ዓበይትን": 7678,
      "ከማዕ": 7679,
      "ዛሕ": 7680,
      "ጽርታት": 7681,
      "ኣበርኪ": 7682,
      "ተዓዊቱ": 7683,
      "ኣግራብን": 7684,
      "ኣፍቀርቲ": 7685,
      "ክሉ": 7686,
      "ዝወለ": 7687,
      "ቈት": 7688,
      "በተን": 7689,
      "ዝዓብ": 7690,
      "ረሽታ": 7691,
      "ፍዮ": 7692,
      "ሜጀር": 7693,
      "በበይኑ": 7694,
      "ፈተን": 7695,
      "ስለዝጠፍ": 7696,
      "ፈትዎ": 7697,
      "ንኤርትራ": 7698,
      "ኣመለ": 7699,
      "ርኢኻ": 7700,
      "ናብኣ": 7701,
      "ንምድሓን": 7702,
      "ሳውያን": 7703,
      "ቀጥታዊ": 7704,
      "ብገለ": 7705,
      "ንፈልጥ": 7706,
      "ኣመሪካውያን": 7707,
      "ኣኽርያ": 7708,
      "ዕምባባ": 7709,
      "ርግኣት": 7710,
      "ክሰምዕ": 7711,
      "ምቅይ": 7712,
      "ንምሕያል": 7713,
      "ዕማማት": 7714,
      "59": 7715,
      "ተቱ": 7716,
      "ኣቤል": 7717,
      "ኮሮና": 7718,
      "ዝተሓለወ": 7719,
      "ረኽቦም": 7720,
      "ዝቑጸሩ": 7721,
      "መዓልትን": 7722,
      "ክሓልፍ": 7723,
      "ንብረትን": 7724,
      "ድላይ": 7725,
      "ዝኣመሰላ": 7726,
      "መሮር": 7727,
      "ኣውቶቡሳት": 7728,
      "መስኮት": 7729,
      "ሰልጣኒ": 7730,
      "ኣምላኽና": 7731,
      "መሻርኽ": 7732,
      "ቀባ": 7733,
      "ኣዕለ": 7734,
      "ኣቐዲመ": 7735,
      "ምክፍ": 7736,
      "ራማ": 7737,
      "ቃቕ": 7738,
      "ን17": 7739,
      "ዝህቡ": 7740,
      "ንቕሓትን": 7741,
      "ቐርብ": 7742,
      "ኴንና": 7743,
      "የሕ": 7744,
      "መሳለጥ": 7745,
      "ሩዎ": 7746,
      "ን14": 7747,
      "ውሁድ": 7748,
      "ሰርሓ": 7749,
      "ምሕያል": 7750,
      "ንኽልቲ": 7751,
      "ኪንዮ": 7752,
      "ክቱ": 7753,
      "ክብሎ": 7754,
      "ፍረወይኒ": 7755,
      "መዋእል": 7756,
      "ዝገብርዎ": 7757,
      "ታሕተዋይ": 7758,
      "ምጕ": 7759,
      "ተጨ": 7760,
      "ቸክ": 7761,
      "ውራ": 7762,
      "ፋይነ": 7763,
      "ላለሱ": 7764,
      "ኻልኦት": 7765,
      "ጥቕሲ": 7766,
      "ዘተባብዕ": 7767,
      "ዝተሰነየ": 7768,
      "ሻድሻይ": 7769,
      "ዓያ": 7770,
      "ሰዓትን": 7771,
      "ዘውትር": 7772,
      "ውዑይ": 7773,
      "ኣሕምልቲ": 7774,
      "ኽልቲ": 7775,
      "ሕርይቲ": 7776,
      "ምስጋናና": 7777,
      "ትውዓል": 7778,
      "ክምል": 7779,
      "ዱዎ": 7780,
      "ኣለን": 7781,
      "ደቂተባዕትዮ": 7782,
      "ሓመል": 7783,
      "ሞር": 7784,
      "ሱታ": 7785,
      "ዕቤት": 7786,
      "ዘረጋግጽ": 7787,
      "ጣብ": 7788,
      "ምርኩስ": 7789,
      "ምዝዛም": 7790,
      "ብምውሳድ": 7791,
      "መረብ": 7792,
      "ንህይወት": 7793,
      "ፈጸም": 7794,
      "ናይዞም": 7795,
      "ዝኸደ": 7796,
      "ጠፊ": 7797,
      "ፍጸም": 7798,
      "ብረታዊ": 7799,
      "ግንባርን": 7800,
      "ምብህሃል": 7801,
      "ሞምን": 7802,
      "ዘርገ": 7803,
      "ሓሊፎም": 7804,
      "ዝተረኽብሉ": 7805,
      "ሕይ": 7806,
      "በዮ": 7807,
      "ጓዕ": 7808,
      "መደባ": 7809,
      "ስርቂ": 7810,
      "እናበልካ": 7811,
      "ተኸላኻሊ": 7812,
      "ለሚ": 7813,
      "መፋር": 7814,
      "ተፈልጠ": 7815,
      "ኣይረኸ": 7816,
      "መስልን": 7817,
      "ሻዱ": 7818,
      "ብመጠኑ": 7819,
      "ቪን": 7820,
      "ትኸይድ": 7821,
      "ምርዳእ": 7822,
      "ተጻሒ": 7823,
      "ብምንባ": 7824,
      "ሓድሕድ": 7825,
      "ሊባኖስ": 7826,
      "ባጤራ": 7827,
      "ምሓዝ": 7828,
      "ዕስራ": 7829,
      "ዝነጥፉ": 7830,
      "ቻይናን": 7831,
      "ኣሻ": 7832,
      "ዘቑ": 7833,
      "ዝተዛ": 7834,
      "ኣይንኽእልን": 7835,
      "ዝሓስ": 7836,
      "ስትሮ": 7837,
      "ብሩር": 7838,
      "ኻኸሪ": 7839,
      "ሓገ": 7840,
      "ዝንገር": 7841,
      "ምቕያር": 7842,
      "መመረ": 7843,
      "ብዘለዎ": 7844,
      "ድልዱል": 7845,
      "ንሙሴ": 7846,
      "ድፋዕ": 7847,
      "እዝዞ": 7848,
      "ንምዃን": 7849,
      "ተንቀሳቓ": 7850,
      "ሓይሉ": 7851,
      "ተስፎም": 7852,
      "ክውንነት": 7853,
      "ቀጠልያ": 7854,
      "ክውሰድ": 7855,
      "ኑስ": 7856,
      "ድኳን": 7857,
      "ገሩ": 7858,
      "ቦምባ": 7859,
      "ግርም": 7860,
      "ወልዳይ": 7861,
      "መጺኣ": 7862,
      "ሽበ": 7863,
      "ዀና": 7864,
      "ግዝያዊ": 7865,
      "ምጽዋት": 7866,
      "ዝፈለ": 7867,
      "ፈጢ": 7868,
      "ግእዝ": 7869,
      "ለቢ": 7870,
      "ምቅር": 7871,
      "ቀርብ": 7872,
      "ንኻ": 7873,
      "ዚግበር": 7874,
      "ብለኩም": 7875,
      "ዘራረብ": 7876,
      "ቅጽበታዊ": 7877,
      "ንዑ": 7878,
      "ካባና": 7879,
      "ሓቚ": 7880,
      "ንዲ": 7881,
      "መንጐ": 7882,
      "ሚልክያስ": 7883,
      "ሸር": 7884,
      "ሽግ": 7885,
      "ትኪ": 7886,
      "ን23": 7887,
      "ክጅምር": 7888,
      "ዝተሓደሰ": 7889,
      "ህጻናትን": 7890,
      "ሃድም": 7891,
      "ሊሕ": 7892,
      "ካኽ": 7893,
      "ምምራሕ": 7894,
      "መትከ": 7895,
      "ባክተርያ": 7896,
      "ክትሰርሕ": 7897,
      "መፋርቕ": 7898,
      "ኣጆ": 7899,
      "እማመ": 7900,
      "ክስን": 7901,
      "ያቆብ": 7902,
      "ክንዳ": 7903,
      "ከይዶም": 7904,
      "በረኸ": 7905,
      "ኣካላትን": 7906,
      "ስሎ": 7907,
      "ኣማኻሪ": 7908,
      "ማንም": 7909,
      "ሳኦል": 7910,
      "ሳሕቲ": 7911,
      "ብሓንቲ": 7912,
      "የዮ": 7913,
      "ተሰሪዑ": 7914,
      "ጭቡጥ": 7915,
      "ሰዲ": 7916,
      "ቁሸት": 7917,
      "ቡእ": 7918,
      "ን13": 7919,
      "ዘጠቓልል": 7920,
      "ድእ": 7921,
      "ብልሒ": 7922,
      "ነገረ": 7923,
      "ኣባላቱ": 7924,
      "ምፍታን": 7925,
      "ገዝእ": 7926,
      "ፍጥነት": 7927,
      "የነ": 7928,
      "ህድእ": 7929,
      "ተላብዮም": 7930,
      "ክብረት": 7931,
      "ጅግና": 7932,
      "፡'": 7933,
      "ተጠቐ": 7934,
      "ረኺቦም": 7935,
      "ዝበዝሖ": 7936,
      "ልኡላው": 7937,
      "ተጠቒሱ": 7938,
      "ሲቪል": 7939,
      "ለተብርሃን": 7940,
      "ንዘለዎ": 7941,
      "መርበ": 7942,
      "ተመኵሮ": 7943,
      "በየን": 7944,
      "ዝሓለፋ": 7945,
      "ብዕም": 7946,
      "ሃብተኣብ": 7947,
      "ምታት": 7948,
      "ግጉይ": 7949,
      "ኣመለኻኽ": 7950,
      "ሓመልማ": 7951,
      "መጎ": 7952,
      "መሃይ": 7953,
      "ተሓጋጋ": 7954,
      "ርድኢት": 7955,
      "ክፍጽም": 7956,
      "ውጽኡ": 7957,
      "ብኣጋኡ": 7958,
      "ምቁራጽ": 7959,
      "ዝሰላሰል": 7960,
      "ብኣሉታ": 7961,
      "ብዝተኻየደ": 7962,
      "ን8": 7963,
      "መሳሰል": 7964,
      "ቀርኒ": 7965,
      "ብሂወት": 7966,
      "ዝራ": 7967,
      "ዝደረ": 7968,
      "ገዲፍካ": 7969,
      "ተዋሕ": 7970,
      "ጠራጥር": 7971,
      "ስልጣኑ": 7972,
      "ምምስራት": 7973,
      "ንምሃብ": 7974,
      "ኣኽላ": 7975,
      "ዝዀና": 7976,
      "ብዝርዝር": 7977,
      "ባላ": 7978,
      "ብዎም": 7979,
      "ትኹን": 7980,
      "ኬን": 7981,
      "ምትእትታው": 7982,
      "ታሕትን": 7983,
      "ሓለፋ": 7984,
      "ከምዘይብሉ": 7985,
      "ምግቢ": 7986,
      "ስብሒ": 7987,
      "ምኩ": 7988,
      "ደነ": 7989,
      "ርከቦ": 7990,
      "ዝምልከቶም": 7991,
      "ካህናት": 7992,
      "ኣእምሮኡ": 7993,
      "ክፈጥር": 7994,
      "መዘኻኸሪ": 7995,
      "ባበር": 7996,
      "ዝትን": 7997,
      "ዳእን": 7998,
      "ሕማሙ": 7999,
      "ተዅ": 8000,
      "ክትል": 8001,
      "ኣሎን": 8002,
      "ገዛኢ": 8003,
      "ንታሕቲ": 8004,
      "እግረ": 8005,
      "ዕርቂ": 8006,
      "ዝዓይነታ": 8007,
      "ጠንቅታት": 8008,
      "ኣካየድቲ": 8009,
      "ሽፋን": 8010,
      "ኣኺሉ": 8011,
      "ኣርሰን": 8012,
      "ትርፎ": 8013,
      "ኣብርሀት": 8014,
      "ዕንጨይቲ": 8015,
      "ኣጋር": 8016,
      "ሃራ": 8017,
      "ዝሕግዙ": 8018,
      "ሑጻ": 8019,
      "ብታ": 8020,
      "ከባብ": 8021,
      "ፍቀ": 8022,
      "ቅድስቲ": 8023,
      "ነይሩኒ": 8024,
      "ባብላ": 8025,
      "ደጊሙ": 8026,
      "ዓሚቝ": 8027,
      "ኣቃውማ": 8028,
      "ጋእቲ": 8029,
      "ዝወጽ": 8030,
      "ብኣድራ": 8031,
      "ብምምልላስን": 8032,
      "ሞይቱ": 8033,
      "67": 8034,
      "ጢሞ": 8035,
      "ዝገብረ": 8036,
      "ሓገዛት": 8037,
      "ዝበጽሓና": 8038,
      "ህው": 8039,
      "ኻሉ": 8040,
      "ዕርድ": 8041,
      "ሓሳባትን": 8042,
      "ከበሳ": 8043,
      "ብእምነት": 8044,
      "ዛዕ": 8045,
      "ሕርሲ": 8046,
      "ገጸይ": 8047,
      "ሚካያ": 8048,
      "ክብረወሰን": 8049,
      "ኣዲኡ": 8050,
      "ምስዚ": 8051,
      "ምስኦም": 8052,
      "ሓያላት": 8053,
      "ተበላ": 8054,
      "ፕላስቲክ": 8055,
      "ኣካላቱ": 8056,
      "ድሕርዚ": 8057,
      "ሓልዮት": 8058,
      "ፍቓደኛ": 8059,
      "ተጠንቀ": 8060,
      "ገብሮም": 8061,
      "ረዪ": 8062,
      "ብምግ": 8063,
      "መስለካ": 8064,
      "ኒውካ": 8065,
      "ህዝበ": 8066,
      "ዚገብር": 8067,
      "ኣፍጋኒ": 8068,
      "ፈጻሚ": 8069,
      "ይራ": 8070,
      "ዘይከም": 8071,
      "ዘይትኽእል": 8072,
      "ልብና": 8073,
      "ሰካ": 8074,
      "ን22": 8075,
      "ጠሩ": 8076,
      "ረትሉ": 8077,
      "ሰነዳ": 8078,
      "ተፈጥሮኣዊ": 8079,
      "መጠንቀቕታ": 8080,
      "ቃለስ": 8081,
      "ከካይዱ": 8082,
      "ጋይ": 8083,
      "በለስ": 8084,
      "ዘየለወሉ": 8085,
      "ዕላማታት": 8086,
      "ብብዙሕ": 8087,
      "ድሓን": 8088,
      "ብናጻ": 8089,
      "ገላዉ": 8090,
      "ርር": 8091,
      "ክሓስብ": 8092,
      "ይዛረብ": 8093,
      "ድቃ": 8094,
      "ፕሊ": 8095,
      "ኣማል": 8096,
      "ብድድ": 8097,
      "ፕላኔት": 8098,
      "ስንባደ": 8099,
      "ከዱ": 8100,
      "ኮኑ": 8101,
      "ድንኳን": 8102,
      "ተጸዋዒ": 8103,
      "ምቊ": 8104,
      "ርኻ": 8105,
      "ባህላውን": 8106,
      "ሩዋን": 8107,
      "ተባብ": 8108,
      "ኩባ": 8109,
      "ኩላትና": 8110,
      "ጥብ": 8111,
      "በትሪ": 8112,
      "247": 8113,
      "ብባ": 8114,
      "ኣንድ": 8115,
      "ወዲቑ": 8116,
      "ተጠራ": 8117,
      "ዝብለካ": 8118,
      "ፍልስጥ": 8119,
      "3ብ0": 8120,
      "ደጀን": 8121,
      "ስርሖም": 8122,
      "ጀሚርና": 8123,
      "መወዳእታኡ": 8124,
      "ርዶ": 8125,
      "ዝወርድ": 8126,
      "ሃዋህው": 8127,
      "ይጅምር": 8128,
      "ዝበዝሓ": 8129,
      "ይቕረቡ": 8130,
      "ቦምብ": 8131,
      "1998": 8132,
      "ብምውህሃድ": 8133,
      "ዝተዋህቦ": 8134,
      "ኦሎምፒክ": 8135,
      "ቱና": 8136,
      "ፊደል": 8137,
      "ላንድን": 8138,
      "ጥዕም": 8139,
      "ሕቡእ": 8140,
      "መዐቀኒ": 8141,
      "ዓዱ": 8142,
      "ጽሬ": 8143,
      "ንንጉስ": 8144,
      "ተሰማ": 8145,
      "ልካን": 8146,
      "ላዕልን": 8147,
      "ዘቃበርኩምና": 8148,
      "ን19": 8149,
      "ንናጽነት": 8150,
      "ውዓ": 8151,
      "ጠበ": 8152,
      "ኢጣልያዊ": 8153,
      "ፊልድ": 8154,
      "ሃረር": 8155,
      "ቱም": 8156,
      "ዘርእዝጊ": 8157,
      "ስዋረዝ": 8158,
      "ተዋስኦ": 8159,
      "ቆፎ": 8160,
      "ዘቐ": 8161,
      "ዘባ": 8162,
      "መርጽ": 8163,
      "ማእቶት": 8164,
      "ጎቦታት": 8165,
      "ሞሳ": 8166,
      "ብኹ": 8167,
      "ደያኑ": 8168,
      "ድሽተ": 8169,
      "ዓይነ": 8170,
      "እትገብሮ": 8171,
      "ንኻልኣይ": 8172,
      "ለመ": 8173,
      "ዚቕ": 8174,
      "ዳሉ": 8175,
      "ኣንብብ": 8176,
      "ትምህርተይ": 8177,
      "ሃጽ": 8178,
      "ራሄል": 8179,
      "ንክ": 8180,
      "ን11": 8181,
      "እብ": 8182,
      "ዴል": 8183,
      "ጦስ": 8184,
      "ኣቐዲምና": 8185,
      "ፈቶ": 8186,
      "ኣለወን": 8187,
      "ይጥ": 8188,
      "ጊልያ": 8189,
      "ዝተጠቕሱ": 8190,
      "ይረአ": 8191,
      "ቶሪ": 8192,
      "ጠመት": 8193,
      "ትምኒት": 8194,
      "ንምፍጣር": 8195,
      "ሊቀ": 8196,
      "ኾነት": 8197,
      "ደዋ": 8198,
      "ዲዞ": 8199,
      "ኣውሪ": 8200,
      "ምእላይ": 8201,
      "መራሒት": 8202,
      "ግቲ": 8203,
      "ዝኣምን": 8204,
      "ወስዱ": 8205,
      "ጌጋታት": 8206,
      "ንውድድር": 8207,
      "የጠቓልል": 8208,
      "ምንም": 8209,
      "ተወዳዳርነት": 8210,
      "ድምር": 8211,
      "ፕሮፌሰር": 8212,
      "ኵነት": 8213,
      "ጽግያት": 8214,
      "ሕሙም": 8215,
      "ጽድቂ": 8216,
      "መንግስትኣብ": 8217,
      "ዕጥቂ": 8218,
      "ሪኡ": 8219,
      "ዘይንቡር": 8220,
      "ተሓጋጋዚ": 8221,
      "ካፈ": 8222,
      "ደማ": 8223,
      "ድለ": 8224,
      "ስርዓትን": 8225,
      "ሰለስቲ": 8226,
      "ንግስነት": 8227,
      "ክረም": 8228,
      "ረረ": 8229,
      "ን21": 8230,
      "ጻፍ": 8231,
      "ውድእ": 8232,
      "ድምጹ": 8233,
      "ቀሪባ": 8234,
      "ጠባያት": 8235,
      "ኣሊ": 8236,
      "ኰር": 8237,
      "ዓይነይ": 8238,
      "ከለዋ": 8239,
      "ፖለቲከ": 8240,
      "ዘቕረቦ": 8241,
      "ስለዝደለየ": 8242,
      "ሕው": 8243,
      "ደዱ": 8244,
      "ምስልጣን": 8245,
      "ጽምዋ": 8246,
      "ነጋዶ": 8247,
      "ዝተበገሰ": 8248,
      "ብሓገዝ": 8249,
      "ሚኒስተ": 8250,
      "ከምዘሎን": 8251,
      "ሊላ": 8252,
      "ብኪ": 8253,
      "ደጎ": 8254,
      "ጸጥ": 8255,
      "ዚዝውተር": 8256,
      "ጺሑ": 8257,
      "፧\"": 8258,
      "ካልኢታት": 8259,
      "ኺዳን": 8260,
      "ጓም": 8261,
      "ደቀቕቲ": 8262,
      "ብዕራይ": 8263,
      "ሱታፌ": 8264,
      "በዅ": 8265,
      "ዘስተ": 8266,
      "ጂኦ": 8267,
      "ፈጸመ": 8268,
      "እመት": 8269,
      "ምዕባለታት": 8270,
      "ብሮም": 8271,
      "ገመ": 8272,
      "መድሕን": 8273,
      "ተጠቕ": 8274,
      "ወሶ": 8275,
      "ጕስ": 8276,
      "ሰይፊ": 8277,
      "ምፍላ": 8278,
      "ሓዲሽ": 8279,
      "ተረጋጊጹ": 8280,
      "ለዋ": 8281,
      "አረ": 8282,
      "መይል": 8283,
      "ኣይኰን": 8284,
      "መንፈስን": 8285,
      "ምልውዋጥ": 8286,
      "ላልያ": 8287,
      "ዝተጻወ": 8288,
      "ዝሓሰብ": 8289,
      "ጀመርኩ": 8290,
      "ዕንቅፋት": 8291,
      "ረሽን": 8292,
      "ዕነት": 8293,
      "ክትዛረብ": 8294,
      "ጐስጓ": 8295,
      "ዋዕታ": 8296,
      "እንተዘይቀሪብካ": 8297,
      "ሪሙ": 8298,
      "ስኪ": 8299,
      "ንበዓል": 8300,
      "ኮል": 8301,
      "ራፍ": 8302,
      "ቆት": 8303,
      "ተጎ": 8304,
      "ኢማ": 8305,
      "ኣደኣ": 8306,
      "ደርብ": 8307,
      "ሓሊፋ": 8308,
      "ጉልበት": 8309,
      "66": 8310,
      "ከምጽእ": 8311,
      "ልምድታት": 8312,
      "ሻዕ": 8313,
      "ቦኽሪ": 8314,
      "ንዓመታት": 8315,
      "ዘማዕ": 8316,
      "ዝመደ": 8317,
      "ኣገዲ": 8318,
      "ክዕወት": 8319,
      "ሃረ": 8320,
      "ዝምራሕ": 8321,
      "በቱ": 8322,
      "ተሃን": 8323,
      "እምባየ": 8324,
      "እሙናት": 8325,
      "ዋትን": 8326,
      "ገቡ": 8327,
      "ባድ": 8328,
      "ተኹ": 8329,
      "ከቕርብ": 8330,
      "ካሳ": 8331,
      "ምድም": 8332,
      "ሩስያን": 8333,
      "መመረቕታ": 8334,
      "ሰመ": 8335,
      "ደሩ": 8336,
      "ዘይተኣ": 8337,
      "እናተቐ": 8338,
      "ትሕብር": 8339,
      "ዝግቦ": 8340,
      "ቅልስ": 8341,
      "መጥቃዕ": 8342,
      "መላእኽቲ": 8343,
      "እናዘ": 8344,
      "ግንዘብ": 8345,
      "ተጠቃምነት": 8346,
      "መደባትን": 8347,
      "ዝብገስ": 8348,
      "ወልደስላሴ": 8349,
      "መዛግብ": 8350,
      "ስርሓሉ": 8351,
      "ኤሪተል": 8352,
      "ሕጹ": 8353,
      "ቤቱን": 8354,
      "ፊዚ": 8355,
      "ኣመት": 8356,
      "ስንጭሮ": 8357,
      "ባእሲ": 8358,
      "ቫይታ": 8359,
      "ከታተሉ": 8360,
      "ስርዓታት": 8361,
      "ሂቦም": 8362,
      "እትኸውን": 8363,
      "ነገድ": 8364,
      "ብኢድ": 8365,
      "ንገዛ": 8366,
      "ጸሃየ": 8367,
      "ዘይብ": 8368,
      "ግዜኣ": 8369,
      "ብሓያል": 8370,
      "ምጽኡ": 8371,
      "ሓየ": 8372,
      "ይመ": 8373,
      "ኣዕሊ": 8374,
      "ድሎ": 8375,
      "ጥማ": 8376,
      "፣፣": 8377,
      "መንገድ": 8378,
      "ክትርኢ": 8379,
      "ኣቕሑ": 8380,
      "ትምህርታ": 8381,
      "ሃላ": 8382,
      "ክሊማ": 8383,
      "ቈጻጸ": 8384,
      "ዝተን": 8385,
      "መጽአ": 8386,
      "ነገሩ": 8387,
      "እተቐ": 8388,
      "ተቐላ": 8389,
      "ኣእምሮይ": 8390,
      "ውርሲ": 8391,
      "ረቂቕ": 8392,
      "ተገዳ": 8393,
      "ተዘክሮ": 8394,
      "ደሞክራ": 8395,
      "ሸሪ": 8396,
      "ናሉ": 8397,
      "ክሓስ": 8398,
      "የካይድ": 8399,
      "ኣብነታት": 8400,
      "ተስላ": 8401,
      "ክትዕወት": 8402,
      "ተመሃራይ": 8403,
      "ሕኩ": 8404,
      "ትፈልጦ": 8405,
      "አይቲ": 8406,
      "ኰሰ": 8407,
      "ዉድ": 8408,
      "ዚው": 8409,
      "ገብረትንሳኤ": 8410,
      "ማህጸን": 8411,
      "ላቦ": 8412,
      "ዘቢብ": 8413,
      "ንምድን": 8414,
      "ተኸቲ": 8415,
      "ኣእማን": 8416,
      "ተሸሊ": 8417,
      "ላህ": 8418,
      "ሺን": 8419,
      "ከባቢና": 8420,
      "ፍልስጥኤ": 8421,
      "7ይ": 8422,
      "በዲ": 8423,
      "ጎማ": 8424,
      "ቅልጣ": 8425,
      "ክፍጠር": 8426,
      "ብዕዳ": 8427,
      "ኒዑ": 8428,
      "ኵር": 8429,
      "ዝዘርግ": 8430,
      "ዝሰዓ": 8431,
      "ቦርድ": 8432,
      "ያንግ": 8433,
      "ገምጊ": 8434,
      "ዕድመኡ": 8435,
      "ኮስታ": 8436,
      "ጻህያ": 8437,
      "ኣንጊ": 8438,
      "ሓድጉ": 8439,
      "ኣእምሮና": 8440,
      "ወላዲቱ": 8441,
      "ባጽ": 8442,
      "ብሕጂ": 8443,
      "ቪድዮ": 8444,
      "ነዋ": 8445,
      "ብኣሽ": 8446,
      "ወለደይ": 8447,
      "ጥበባት": 8448,
      "ክኸዉን": 8449,
      "ምዃንካ": 8450,
      "ኣስማ": 8451,
      "ሞግዚ": 8452,
      "ቃብን": 8453,
      "ቢድ": 8454,
      "ካሊ": 8455,
      "ቀሪቦም": 8456,
      "ረኺበዮ": 8457,
      "ተተካእቲ": 8458,
      "ወኻ": 8459,
      "ዝዮን": 8460,
      "ደኺ": 8461,
      "ረኸበት": 8462,
      "ምሳሕ": 8463,
      "ኣዒንተይ": 8464,
      "ተኸታተልቲ": 8465,
      "ነቕርብ": 8466,
      "ዓጢ": 8467,
      "እንትርፎ": 8468,
      "ኣልጋ": 8469,
      "ዕርዲ": 8470,
      "ተኾ": 8471,
      "ክርእዮ": 8472,
      "ብራዚላዊ": 8473,
      "ብግደኡ": 8474,
      "ርዲ": 8475,
      "ሰማማዕ": 8476,
      "ህይወታውያን": 8477,
      "ሽበራ": 8478,
      "ብቓ": 8479,
      "ኣኸለ": 8480,
      "ክጽበ": 8481,
      "ጓን": 8482,
      "ጥቃጥ": 8483,
      "ባህርይ": 8484,
      "ሃቱ": 8485,
      "ካቡ": 8486,
      "ሰብኣያ": 8487,
      "ኣፍሪቃውያን": 8488,
      "ዘይክእሉ": 8489,
      "መታ": 8490,
      "በያ": 8491,
      "ኣእቲ": 8492,
      "ወትን": 8493,
      "ገዛእቲ": 8494,
      "ጸይቲ": 8495,
      "ተረኽበ": 8496,
      "ቶዶ": 8497,
      "ቀጸ": 8498,
      "ቦታት": 8499,
      "ኣቦታ": 8500,
      "ዛራ": 8501,
      "ክውሰን": 8502,
      "ዉሽጢ": 8503,
      "ተባህለ": 8504,
      "ጸሃይ": 8505,
      "ርከባ": 8506,
      "ከምዝኸውን": 8507,
      "ኣልኣዛ": 8508,
      "ሰምሃር": 8509,
      "ፊልሞን": 8510,
      "ሊሑ": 8511,
      "ሓታ": 8512,
      "ንመበል": 8513,
      "የድልዮ": 8514,
      "ይመስለኒ": 8515,
      "ተረኺቦም": 8516,
      "ሓምሳ": 8517,
      "ሪጹ": 8518,
      "ዮሃ": 8519,
      "ተርስ": 8520,
      "መጽኡ": 8521,
      "ምክያ": 8522,
      "ርዳእ": 8523,
      "ሲና": 8524,
      "ሽቕ": 8525,
      "ቲካዊ": 8526,
      "ጋገዝ": 8527,
      "መትሓዚ": 8528,
      "ኣረፋይነ": 8529,
      "ኣቕሓ": 8530,
      "ኣሕዋቱ": 8531,
      "ጥርጣረ": 8532,
      "ኤፌ": 8533,
      "ኳስ": 8534,
      "ትንፋ": 8535,
      "ንሳተን": 8536,
      "ዝሓጸረ": 8537,
      "ዝፈጠረ": 8538,
      "ነቐፌታ": 8539,
      "ኤይድ": 8540,
      "ኣልዩ": 8541,
      "ተዓዛ": 8542,
      "ኣርጀንቲ": 8543,
      "ዝሓስብ": 8544,
      "ቅድመይ": 8545,
      "ግራፍ": 8546,
      "ዘይተደልየ": 8547,
      "ብዋ": 8548,
      "ዝስራሕ": 8549,
      "ዝመስለ": 8550,
      "ተወልደብርሃን": 8551,
      "ተንሲኡ": 8552,
      "ዕዱማት": 8553,
      "ብምጥቃ": 8554,
      "ፍርን": 8555,
      "ሃንጽ": 8556,
      "መለለይ": 8557,
      "2003": 8558,
      "በጺሖም": 8559,
      "ተጠርኒ": 8560,
      "ይዓ": 8561,
      "ማእቶ": 8562,
      "ፈተው": 8563,
      "ኣኽራን": 8564,
      "ኣይከኣሉን": 8565,
      "ጣታት": 8566,
      "ድንሽ": 8567,
      "ድንቂ": 8568,
      "ኣኼባታት": 8569,
      "ሓሸ": 8570,
      "ወተ": 8571,
      "ዩት": 8572,
      "መልስ": 8573,
      "ኸኣሉ": 8574,
      "ዝውሰድ": 8575,
      "ቅርጻ": 8576,
      "ጠዓመ": 8577,
      "ብርኽቲ": 8578,
      "ኣሎዎ": 8579,
      "ተኣሲ": 8580,
      "ዕብየ": 8581,
      "ምግም": 8582,
      "ዓሳሱ": 8583,
      "ተሞክሮ": 8584,
      "ሕጺ": 8585,
      "ተሌ": 8586,
      "ኣፍራ": 8587,
      "ኣምላኽን": 8588,
      "ትርብ": 8589,
      "ብሰለስተ": 8590,
      "ኣእም": 8591,
      "ንምፍጻም": 8592,
      "ጋዜጣታት": 8593,
      "ከንቱ": 8594,
      "ኣገልግሎትን": 8595,
      "ዉዕ": 8596,
      "ደንጎ": 8597,
      "ሕማማትን": 8598,
      "ወለድን": 8599,
      "ቅዱሳት": 8600,
      "በበ": 8601,
      "እተዋህ": 8602,
      "ጥንቀ": 8603,
      "ኣድናቖት": 8604,
      "ምክን": 8605,
      "ዝጻወት": 8606,
      "ዴን": 8607,
      "ነበሮም": 8608,
      "ሓሰበ": 8609,
      "ፈልጡን": 8610,
      "ዘቤታዊ": 8611,
      "ዕዳጋታት": 8612,
      "ገያ": 8613,
      "ፎሮ": 8614,
      "ኣእምሮኻ": 8615,
      "ጥቅዕ": 8616,
      "እተፈላለየ": 8617,
      "ሓስን": 8618,
      "ቐቐ": 8619,
      "ውራይ": 8620,
      "ዘይከውን": 8621,
      "ሓይል": 8622,
      "ነብስና": 8623,
      "ደርፍ": 8624,
      "ወሲኾም": 8625,
      "ሓሳብን": 8626,
      "ትምህርታዊ": 8627,
      "1994": 8628,
      "ጭብጢ": 8629,
      "ዝዳሎ": 8630,
      "ሊዮነል": 8631,
      "ረዮ": 8632,
      "ክንም": 8633,
      "ዝፋ": 8634,
      "ጠኑ": 8635,
      "ተርኢ": 8636,
      "ዕንባባ": 8637,
      "2002": 8638,
      "መካነ": 8639,
      "ኣስሚሩሉ": 8640,
      "61": 8641,
      "ትንቢት": 8642,
      "ሕርቃ": 8643,
      "ኣይነበራን": 8644,
      "ጀርመና": 8645,
      "ሳነ": 8646,
      "እባ": 8647,
      "ኣካዪዱ": 8648,
      "ዝኾነሉ": 8649,
      "ዘመዝገባ": 8650,
      "ዘካይድዎ": 8651,
      "ረዩ": 8652,
      "ኩላቶም": 8653,
      "ምስል": 8654,
      "ዕብዮ": 8655,
      "ግደድ": 8656,
      "ኮሌጅ": 8657,
      "800": 8658,
      "ሚስተር": 8659,
      "ኸብ": 8660,
      "ፈለይ": 8661,
      "ውድድራ": 8662,
      "ስውኣት": 8663,
      "ሶልያ": 8664,
      "፣\"": 8665,
      "ክፍጸም": 8666,
      "ትምኒ": 8667,
      "ትስፉ": 8668,
      "ሂወቱ": 8669,
      "ለሊ": 8670,
      "ኡስ": 8671,
      "ንምቅ": 8672,
      "ውድቀት": 8673,
      "ተራን": 8674,
      "ሃብተሚካኤል": 8675,
      "ንምምላስ": 8676,
      "ልታ": 8677,
      "ዋይን": 8678,
      "ዝምን": 8679,
      "ዘማል": 8680,
      "ማንካ": 8681,
      "2001": 8682,
      "ሲንጋ": 8683,
      "ብኣጋጣሚ": 8684,
      "ብውልቂ": 8685,
      "ዄንና": 8686,
      "ወተሉ": 8687,
      "ተሓታት": 8688,
      "ክብለካ": 8689,
      "ኣዕሚ": 8690,
      "ክብርታትን": 8691,
      "ክሪስታል": 8692,
      "ን7": 8693,
      "ክትስ": 8694,
      "ኣስና": 8695,
      "ዘናግ": 8696,
      "ይርከባ": 8697,
      "ኦሮታ": 8698,
      "ጽዕነት": 8699,
      "ኲስ": 8700,
      "ሓላፊት": 8701,
      "ካባኻ": 8702,
      "ለባም": 8703,
      "ፍቑራት": 8704,
      "ንደገ": 8705,
      "ጅምሩ": 8706,
      "ምሕላ": 8707,
      "ስራዕ": 8708,
      "ተጠቒሞም": 8709,
      "ሆር": 8710,
      "ቋረ": 8711,
      "ውቃ": 8712,
      "ብቕጽበት": 8713,
      "ርግሽ": 8714,
      "ርድኦ": 8715,
      "ጋንዳ": 8716,
      "ሞስ": 8717,
      "ጕዳ": 8718,
      "ዘይነበሮ": 8719,
      "ስለዝሓ": 8720,
      "ተኣታ": 8721,
      "ሓሳቡ": 8722,
      "62": 8723,
      "ክሓል": 8724,
      "ኣትየ": 8725,
      "ኣቢልና": 8726,
      "ካርቦን": 8727,
      "ብቑጽሪ": 8728,
      "ማለተይ": 8729,
      "ክማ": 8730,
      "ክሳንደር": 8731,
      "ውዎ": 8732,
      "ጋፍ": 8733,
      "ጳጳ": 8734,
      "ፌት": 8735,
      "እንተዄንካ": 8736,
      "ኣመዝጋ": 8737,
      "ዝፈጸመ": 8738,
      "ልኡል": 8739,
      "ኣልጋነሽ": 8740,
      "ይብለኒ": 8741,
      "ክሰጋገር": 8742,
      "ተኸላኻላይ": 8743,
      "ሖን": 8744,
      "ረኽበን": 8745,
      "ተሰሊፉ": 8746,
      "መሃሩ": 8747,
      "ወዓ": 8748,
      "ዝነበር": 8749,
      "ድርን": 8750,
      "ባሉ": 8751,
      "ምስም": 8752,
      "ምስታይ": 8753,
      "ኣባጊዕ": 8754,
      "ድምጻዊ": 8755,
      "ሲናይ": 8756,
      "ንረብሓ": 8757,
      "የድል": 8758,
      "ጉሰን": 8759,
      "ዑቕባይ": 8760,
      "ክሳተፍ": 8761,
      "ዕጸ": 8762,
      "ክትህ": 8763,
      "ስምዓ": 8764,
      "መሓዝኣ": 8765,
      "ዕብየትን": 8766,
      "ኣፍሪቃዊ": 8767,
      "ዕወት": 8768,
      "መንን": 8769,
      "ወልደኣብ": 8770,
      "ሓዳርን": 8771,
      "ምክትታልን": 8772,
      "ዓስራይ": 8773,
      "ዝምስገን": 8774,
      "መድሃኒታት": 8775,
      "ዘይክ": 8776,
      "ፈርኦን": 8777,
      "ኒውካስል": 8778,
      "ዝተነ": 8779,
      "ታሪኽን": 8780,
      "ጣዕሳ": 8781,
      "መንግስታ": 8782,
      "ተስፋልደት": 8783,
      "ተኸላኸ": 8784,
      "ፍጡራት": 8785,
      "ኹዎ": 8786,
      "ዚመጽእ": 8787,
      "በጺሓ": 8788,
      "ዝርከቦ": 8789,
      "ዘቕረበ": 8790,
      "ጸጕሪ": 8791,
      "ውሽጥና": 8792,
      "ኣታኽልቲ": 8793,
      "ኣጠማም": 8794,
      "ንዋንጫ": 8795,
      "ዘማ": 8796,
      "ይብሃል": 8797,
      "ጻብ": 8798,
      "ዝወጹ": 8799,
      "ክወሃቦ": 8800,
      "ሃይማኖትን": 8801,
      "ሻዱሻይ": 8802,
      "ያዊት": 8803,
      "600": 8804,
      "ቃልዕ": 8805,
      "ሻብ": 8806,
      "መሰረታውያን": 8807,
      "ኮፕ": 8808,
      "ኣፍቂ": 8809,
      "ዘመናት": 8810,
      "መጓሰ": 8811,
      "ረቦም": 8812,
      "ሱልጣን": 8813,
      "ብጹ": 8814,
      "ክትበጽሕ": 8815,
      "ተሪፋ": 8816,
      "መዝነት": 8817,
      "ኸትል": 8818,
      "ቅቡ": 8819,
      "እናወሰኸ": 8820,
      "ስኢኑ": 8821,
      "ሓልዮትን": 8822,
      "ማው": 8823,
      "ንእሽ": 8824,
      "ብኣሽሓት": 8825,
      "መሕትት": 8826,
      "ዝበጻሕ": 8827,
      "መኽዘን": 8828,
      "ስቕታ": 8829,
      "መዝገበ": 8830,
      "ታቦት": 8831,
      "ኳር": 8832,
      "ገጽካ": 8833,
      "ስለዝደለና": 8834,
      "ብዝእዝዞ": 8835,
      "ድርኺት": 8836,
      "ዝመጽኡ": 8837,
      "ብዝተገብረ": 8838,
      "መዛሙ": 8839,
      "ሊዕ": 8840,
      "ነጺ": 8841,
      "ብርት": 8842,
      "ሃብቱ": 8843,
      "ምፕተን": 8844,
      "ስቶክ": 8845,
      "እንቋቝ": 8846,
      "ኦርቶዶ": 8847,
      "ሉቃ": 8848,
      "ቢያ": 8849,
      "ተሰጋጊሩ": 8850,
      "ኣርከ": 8851,
      "ዅሎም": 8852,
      "ዕውት": 8853,
      "ዲሞክራ": 8854,
      "ክትም": 8855,
      "ፈጺሞም": 8856,
      "ከፊቱ": 8857,
      "ሰኪዐት": 8858,
      "ኛን": 8859,
      "ብምንባራ": 8860,
      "ሥጋ": 8861,
      "ሰተ": 8862,
      "ተቐቢሎም": 8863,
      "እንግሊዛዊት": 8864,
      "ዝመስሉ": 8865,
      "ፖርቱጋ": 8866,
      "ቘልዓ": 8867,
      "ኸመይ": 8868,
      "ዚል": 8869,
      "ወለዳ": 8870,
      "ንድፊ": 8871,
      "ሕድሕ": 8872,
      "ከምታ": 8873,
      "ዝረክብ": 8874,
      "ኣዘዘ": 8875,
      "መዕለ": 8876,
      "ቛም": 8877,
      "ኦክስ": 8878,
      "ዓምበር": 8879,
      "ፋው": 8880,
      "ኣርሒ": 8881,
      "መዛኑ": 8882,
      "ተኸፊቱ": 8883,
      "ልዋም": 8884,
      "ብገምጋም": 8885,
      "ኣዜብ": 8886,
      "ክሸ": 8887,
      "ፖርት": 8888,
      "ዝቐንዐ": 8889,
      "ዝመሰ": 8890,
      "መለሰሉ": 8891,
      "250": 8892,
      "ትካልና": 8893,
      "ጥፍኣት": 8894,
      "ቈልዑን": 8895,
      "መዳያዊ": 8896,
      "ጭርሖ": 8897,
      "ሕይወት": 8898,
      "ሰለይ": 8899,
      "ከተስ": 8900,
      "ኣይትሕ": 8901,
      "በልኩም": 8902,
      "ዝሰማዕ": 8903,
      "ብምርኣይ": 8904,
      "ክገብራ": 8905,
      "ሚቱ": 8906,
      "ረጃ": 8907,
      "ንረኽቦ": 8908,
      "ዝብልዎ": 8909,
      "ሱዳንን": 8910,
      "መመሊሱ": 8911,
      "ንየሱስ": 8912,
      "ምንቅ": 8913,
      "መልእ": 8914,
      "ታንክታት": 8915,
      "ምህላወን": 8916,
      "መጸውዒ": 8917,
      "ዝተሳተፉ": 8918,
      "ድንጋ": 8919,
      "ዓቕምና": 8920,
      "መንግስቲን": 8921,
      "ዝተረፋ": 8922,
      "ኣጻብዕ": 8923,
      "ፖለቲካውን": 8924,
      "ኖታሪን": 8925,
      "ረዘነ": 8926,
      "ቀሉ": 8927,
      "ከኽ": 8928,
      "ዝግባ": 8929,
      "ኣቐዲምካ": 8930,
      "ትሰርሕ": 8931,
      "ፍትዊ": 8932,
      "ኣይርሳዕን": 8933,
      "ምፍልላይ": 8934,
      "ዝተሰማዓና": 8935,
      "79": 8936,
      "ዘላቶ": 8937,
      "ብሰንበት": 8938,
      "ተዋሳእቲ": 8939,
      "ምክፍፋል": 8940,
      "መሃን": 8941,
      "ንሓያሎ": 8942,
      "ኾን": 8943,
      "መርሓ": 8944,
      "ሂወቶም": 8945,
      "ከውሒ": 8946,
      "ጥዐ": 8947,
      "መንድ": 8948,
      "ርእይቶታት": 8949,
      "ሙስ": 8950,
      "ትሉ": 8951,
      "ነካ": 8952,
      "ዓድና": 8953,
      "ምድግጋ": 8954,
      "ሰንቲ": 8955,
      "ጥረታት": 8956,
      "ሃብታማት": 8957,
      "ይሁዳን": 8958,
      "ኣጸዋውታ": 8959,
      "ሜሪ": 8960,
      "ቡዎ": 8961,
      "ኰይነን": 8962,
      "ጶስ": 8963,
      "ወሲዶም": 8964,
      "ኣቕረበ": 8965,
      "ሓተታ": 8966,
      "ጸለምቲ": 8967,
      "ዑቕባሚካኤል": 8968,
      "ልዮ": 8969,
      "ብመሰረቱ": 8970,
      "ኣሐ": 8971,
      "ከመሓላልፎ": 8972,
      "ተፈቲ": 8973,
      "ድኻታት": 8974,
      "ሳለ": 8975,
      "ኮነት": 8976,
      "ተመኲሮ": 8977,
      "ቀብሪ": 8978,
      "ብገንዘብ": 8979,
      "ን1": 8980,
      "ወቱ": 8981,
      "ዚነብሩ": 8982,
      "ምርባሕ": 8983,
      "ዝወር": 8984,
      "ቤተክርስትያን": 8985,
      "ውሳነታት": 8986,
      "3ብ1": 8987,
      "ረኪ": 8988,
      "ርትን": 8989,
      "ዚም": 8990,
      "ዝነበረኒ": 8991,
      "ዕላማን": 8992,
      "ፈርጉሰን": 8993,
      "ኣቐሚ": 8994,
      "ምምር": 8995,
      "ርኡይ": 8996,
      "ናሆም": 8997,
      "ዕሸል": 8998,
      "ክትገብሮ": 8999,
      "ጀሚረን": 9000,
      "ዝተሳተፍዎ": 9001,
      "ሶልያና": 9002,
      "ቃሉ": 9003,
      "ኤሊ": 9004,
      "ኩሉኹም": 9005,
      "ክህልዋ": 9006,
      "ምክትል": 9007,
      "ምጅማሩ": 9008,
      "ንምምዕባል": 9009,
      "ንግዜኡ": 9010,
      "ዝነትን": 9011,
      "ደለን": 9012,
      "ዳሎ": 9013,
      "ልናዮ": 9014,
      "ረንቶስ": 9015,
      "ጻድ": 9016,
      "ብልዕሊ": 9017,
      "በርህ": 9018,
      "ተወልደመድህን": 9019,
      "ብዓልቲ": 9020,
      "ከሰተ": 9021,
      "እው": 9022,
      "ዓዘ": 9023,
      "ግዝኣ": 9024,
      "ጣቕ": 9025,
      "ዋርሳይ": 9026,
      "ንነብሱ": 9027,
      "ኣገልገልቲ": 9028,
      "ህናትን": 9029,
      "ለዎ": 9030,
      "መናዊ": 9031,
      "ደሱ": 9032,
      "ሃሃ": 9033,
      "ኸዱ": 9034,
      "ይለ": 9035,
      "ብቐስ": 9036,
      "ተርእዮታት": 9037,
      "መኸተን": 9038,
      "ክዓቢ": 9039,
      "ኣስመራን": 9040,
      "ደብዳበታት": 9041,
      "ኣመለኻኽታ": 9042,
      "ቡላ": 9043,
      "ባውን": 9044,
      "ንእስራኤል": 9045,
      "ጨበ": 9046,
      "ሃዋሁ": 9047,
      "ቀመም": 9048,
      "ኛታትን": 9049,
      "ኣራዊት": 9050,
      "ከመዝግብ": 9051,
      "ጊድ": 9052,
      "ክትነብር": 9053,
      "ትርሓስ": 9054,
      "ሓተቶ": 9055,
      "ብዝሓየለ": 9056,
      "ጅመር": 9057,
      "ገዘ": 9058,
      "ተሓጒ": 9059,
      "መዓካ": 9060,
      "ኣይክእሉን": 9061,
      "ጋዜጠኛታት": 9062,
      "ሓመልማሎ": 9063,
      "ልሳን": 9064,
      "ብሰብ": 9065,
      "ከተማታትን": 9066,
      "ቀዳመ": 9067,
      "ተባዕትዮን": 9068,
      "ሪያ": 9069,
      "ከይን": 9070,
      "ጥሪትን": 9071,
      "ክህልዎም": 9072,
      "መምሃሪ": 9073,
      "ዓረዛ": 9074,
      "ኣቚ": 9075,
      "ተወኪ": 9076,
      "ኣነባብራ": 9077,
      "ነብሪ": 9078,
      "ብስመይ": 9079,
      "ጋንትኡ": 9080,
      "ገንዘባዊ": 9081,
      "ጸጸራት": 9082,
      "ኣመዝጋቢ": 9083,
      "ይሓትት": 9084,
      "ግበረ": 9085,
      "ክትሰ": 9086,
      "ኣነጺ": 9087,
      "ታሕዘ": 9088,
      "ተጻዋርነት": 9089,
      "ፈጺመ": 9090,
      "ድቂ": 9091,
      "ብኽብሪ": 9092,
      "ኣይነበረንን": 9093,
      "ስዊዘርላንድ": 9094,
      "ቪታ": 9095,
      "ፍዕ": 9096,
      "እንተሃልዩ": 9097,
      "ኣትሒዛ": 9098,
      "ኮንጎ": 9099,
      "ግብርን": 9100,
      "አሎኹ": 9101,
      "68": 9102,
      "ኣሪ": 9103,
      "ክጸ": 9104,
      "ወለን": 9105,
      "ዘኽእ": 9106,
      "ዝኣት": 9107,
      "ዝሰል": 9108,
      "ዘቕረብ": 9109,
      "ትግራይ": 9110,
      "ዴቪድ": 9111,
      "ጉም": 9112,
      "ኣንጸባ": 9113,
      "ምምራጽ": 9114,
      "ብምቕጻል": 9115,
      "ተመሓላለፍቲ": 9116,
      "ህሩ": 9117,
      "ኣዮም": 9118,
      "ገብረኣብ": 9119,
      "ላንዳዊ": 9120,
      "ትርብዒት": 9121,
      "ብሬ": 9122,
      "ብቝ": 9123,
      "ምልላይ": 9124,
      "ክቡራት": 9125,
      "በኪ": 9126,
      "ቦላ": 9127,
      "ክስራሕ": 9128,
      "ጓርድ": 9129,
      "ምምሃርን": 9130,
      "ወደቐ": 9131,
      "ተኣምራት": 9132,
      "መኣዝን": 9133,
      "ራቡ": 9134,
      "ሰለት": 9135,
      "ብውል": 9136,
      "ግዜኦም": 9137,
      "ዓይና": 9138,
      "ኢሳያስ": 9139,
      "78": 9140,
      "ተጐ": 9141,
      "ኒካ": 9142,
      "ማርያምን": 9143,
      "ምስራዝ": 9144,
      "ዲቪዝዮን": 9145,
      "ላቲን": 9146,
      "ዐር": 9147,
      "ፈሊጡ": 9148,
      "ተንቀሳቐ": 9149,
      "ገብረዝጊ": 9150,
      "በብሓደ": 9151,
      "ፍትሕን": 9152,
      "ሾብ": 9153,
      "እዝን": 9154,
      "ጠናን": 9155,
      "ክትኣቱ": 9156,
      "ኣልጀርያ": 9157,
      "ኤለክትሪ": 9158,
      "ምውሳኽ": 9159,
      "ደጋጊሙ": 9160,
      "ጸውዓ": 9161,
      "ንምህናጽ": 9162,
      "ተኣማምን": 9163,
      "ረደ": 9164,
      "ፋክስ": 9165,
      "መወዳእታን": 9166,
      "ክዛዘም": 9167,
      "ስውእ": 9168,
      "ሻውዓይ": 9169,
      "ሓጽ": 9170,
      "ተምሳ": 9171,
      "ኔሮም": 9172,
      "ኮሰ": 9173,
      "ኻህን": 9174,
      "ዝሐ": 9175,
      "ቅልጥፍ": 9176,
      "ብደቂቕ": 9177,
      "ሚሩ": 9178,
      "ሮንን": 9179,
      "ሳስን": 9180,
      "ትሸ": 9181,
      "ናፖሊ": 9182,
      "ዶርት": 9183,
      "ዘንጸባር": 9184,
      "ዓሚቚ": 9185,
      "ገጠራት": 9186,
      "ስለዘይብሉ": 9187,
      "ኣፍጋኒስታን": 9188,
      "ኰይን": 9189,
      "ውሒ": 9190,
      "ነትና": 9191,
      "ብልሓት": 9192,
      "ምዕዋት": 9193,
      "ብለና": 9194,
      "ከፈ": 9195,
      "ካፒ": 9196,
      "በርና": 9197,
      "ክኸዱ": 9198,
      "ኒኑ": 9199,
      "ክልቴና": 9200,
      "ምልከቶ": 9201,
      "ርሒቑ": 9202,
      "ኣቑሑ": 9203,
      "ዝፈጠሮ": 9204,
      "ክሕብረ": 9205,
      "መጸት": 9206,
      "ዝካ": 9207,
      "ሃይለማርያም": 9208,
      "ቒሉ": 9209,
      "ታህ": 9210,
      "ከማይ": 9211,
      "ካህን": 9212,
      "ኸተ": 9213,
      "ዕቦ": 9214,
      "ኣይትፈልጥን": 9215,
      "ከታተ": 9216,
      "ኽካ": 9217,
      "ጥታት": 9218,
      "እትዎ": 9219,
      "እየሱስ": 9220,
      "ርያዊ": 9221,
      "ትካእ": 9222,
      "ስእልታት": 9223,
      "ፕሮቲን": 9224,
      "ብሄራት": 9225,
      "ጀራዲን": 9226,
      "ሉዊስ": 9227,
      "ጥፈ": 9228,
      "ልግሲ": 9229,
      "ሂን": 9230,
      "መጣ": 9231,
      "ድነ": 9232,
      "ብምምስ": 9233,
      "ርሑስ": 9234,
      "ይፈጥር": 9235,
      "ሾብዓተ": 9236,
      "ገዳይ": 9237,
      "ግምጋም": 9238,
      "እሱራት": 9239,
      "ወዓለ": 9240,
      "ኣይክት": 9241,
      "ክንቅ": 9242,
      "መጸዋዕታ": 9243,
      "ተዓዋቲት": 9244,
      "ወጥ": 9245,
      "ወጸት": 9246,
      "ዋእ": 9247,
      "ድሕን": 9248,
      "ብምዝኽኻር": 9249,
      "ከይዳ": 9250,
      "እስማ": 9251,
      "ሕብረተሰብን": 9252,
      "ተኸሲቱ": 9253,
      "ስዋን": 9254,
      "ቀውታ": 9255,
      "ቡዕ": 9256,
      "ዕሸ": 9257,
      "ዜግ": 9258,
      "ደንን": 9259,
      "ውጉኣት": 9260,
      "ተወጢ": 9261,
      "ዓውታ": 9262,
      "ንነብሰይ": 9263,
      "ሩዕ": 9264,
      "ነፊ": 9265,
      "ዝኽእላ": 9266,
      "በይል": 9267,
      "ዝሕል": 9268,
      "ሓርማዝ": 9269,
      "ዝተሰጋገረ": 9270,
      "ዝተርፍ": 9271,
      ")።": 9272,
      "ንበል": 9273,
      "መስኖ": 9274,
      "ዝረኸቦ": 9275,
      "ይውስኽ": 9276,
      "ጋጊ": 9277,
      "ደረጃኡ": 9278,
      "ክህቡ": 9279,
      "ጅግንነት": 9280,
      "ላቕ": 9281,
      "ሓጸ": 9282,
      "ክውዕል": 9283,
      "ጻው": 9284,
      "ሃልኪ": 9285,
      "ተወዳዳ": 9286,
      "ንምምሕያሽ": 9287,
      "ትበሃል": 9288,
      "ኣይፋ": 9289,
      "ኣስመላ": 9290,
      "እትደሊ": 9291,
      "ኣፍራይ": 9292,
      "ካየዱ": 9293,
      "ኣኽብሮት": 9294,
      "ለብ": 9295,
      "ቲቪ": 9296,
      "ክኣትዉ": 9297,
      "ኣተኩሮ": 9298,
      "ማግ": 9299,
      "ሳተፈ": 9300,
      "ተዂ": 9301,
      "እመን": 9302,
      "ካርቱን": 9303,
      "ሆስፒታ": 9304,
      "ሳውዝሃ": 9305,
      "ብምብጋስ": 9306,
      "ብ3": 9307,
      "ታክሲ": 9308,
      "ኤሌ": 9309,
      "ፋኤል": 9310,
      "ሱል": 9311,
      "ብቤት": 9312,
      "ንኣርባዕተ": 9313,
      "እንተኾኑ": 9314,
      "ባዕልና": 9315,
      "ድምጽ": 9316,
      "እንስሳታትን": 9317,
      "ተጠቒሙ": 9318,
      "ጸሓያ": 9319,
      "ፍርያም": 9320,
      "ተጻወትታ": 9321,
      "ሰፊሩ": 9322,
      "ኣቀራርባ": 9323,
      "መሃይምነት": 9324,
      "ሃበት": 9325,
      "ከሰላ": 9326,
      "ከረጋግ": 9327,
      "ክቶን": 9328,
      "ሓብተይ": 9329,
      "ለበዳ": 9330,
      "ዩኒቨርስቲ": 9331,
      "ሞተር": 9332,
      "ንነ": 9333,
      "ዓዋ": 9334,
      "ዕቃ": 9335,
      "ክብሃል": 9336,
      "ዝቐር": 9337,
      "ተለፎን": 9338,
      "ሀን": 9339,
      "ቈረንቶስ": 9340,
      "ቡክ": 9341,
      "ጽንበር": 9342,
      "ዘካርያስ": 9343,
      "ተቐሚጡ": 9344,
      "ሪኮ": 9345,
      "ብምግንዛብ": 9346,
      "ሓበሬታታት": 9347,
      "ሓለውቲ": 9348,
      "ዝስራዕ": 9349,
      "ጀርመናዊ": 9350,
      "መመላ": 9351,
      "ሶማል": 9352,
      "ንመንእሰያት": 9353,
      "ዘይተሓ": 9354,
      "ሓንጐ": 9355,
      "ከምዝዀነ": 9356,
      "ማሕበራውን": 9357,
      "መስዋእትን": 9358,
      "ኢልዎ": 9359,
      "ዘነጽር": 9360,
      "ቈላሕታ": 9361,
      "ዐይቲ": 9362,
      "ክንርኢ": 9363,
      "መዓንጣ": 9364,
      "ህንጡ": 9365,
      "ህሉል": 9366,
      "ግዳማዊ": 9367,
      "ምታ": 9368,
      "ትዛረብ": 9369,
      "ንዘለዉ": 9370,
      "ኦልድ": 9371,
      "ክጻ": 9372,
      "ምድላይ": 9373,
      "ንታሪ": 9374,
      "ብዛሕ": 9375,
      "ተኸታቲ": 9376,
      "ተሃድ": 9377,
      "ኣእካል": 9378,
      "ብብዙሓት": 9379,
      "ዳህላ": 9380,
      "ኣይኮነትን": 9381,
      "ክኾነ": 9382,
      "ክኾና": 9383,
      "ክወዳደር": 9384,
      "ውጹ": 9385,
      "ፈልጦን": 9386,
      "ዳዕሮ": 9387,
      "ፈለጥኩ": 9388,
      "ተቐላጢ": 9389,
      "ሓዛ": 9390,
      "ብየ": 9391,
      "ውዱ": 9392,
      "ይሙ": 9393,
      "ዞባታትን": 9394,
      "ከውንን": 9395,
      "ካርታ": 9396,
      "ገበሮ": 9397,
      "ዝተመላለስ": 9398,
      "ቀቢላ": 9399,
      "ክሮን": 9400,
      "መምዘኒ": 9401,
      "ዝኣተዉ": 9402,
      "ቦይ": 9403,
      "ነናብ": 9404,
      "እናነ": 9405,
      "ልል": 9406,
      "ልፋ": 9407,
      "ምሳኺ": 9408,
      "ቅቕ": 9409,
      "ንርአ": 9410,
      "ውፉ": 9411,
      "ተኣታት": 9412,
      "ሰረጀ": 9413,
      "ይጥቀስ": 9414,
      "ዘይቅ": 9415,
      "ንስር": 9416,
      "ኣምና": 9417,
      "ብራኸ": 9418,
      "ሃይሉ": 9419,
      "ሓቲተ": 9420,
      "ዳሕረዋይ": 9421,
      "ብ18": 9422,
      "ክረኽቦ": 9423,
      "ዓመታ": 9424,
      "ሃንቀውታ": 9425,
      "ብዘይካዚ": 9426,
      "ገበነኛታት": 9427,
      "ሽበራዊ": 9428,
      "ምንቅጥቃጥ": 9429,
      "ሎቲ": 9430,
      "ቃሕ": 9431,
      "ተከ": 9432,
      "ትኩ": 9433,
      "ትጽበ": 9434,
      "ክጠ": 9435,
      "ዝቐነ": 9436,
      "ቤተል": 9437,
      "ኤድ": 9438,
      "ውዓል": 9439,
      "ዕርፍ": 9440,
      "ኣጥፊ": 9441,
      "ሓርበኛ": 9442,
      "ኣስገዶም": 9443,
      "ቶኒ": 9444,
      "ክወርድ": 9445,
      "ዘፍረ": 9446,
      "ዘይር": 9447,
      "ዘይተርፍ": 9448,
      "በልኩዎ": 9449,
      "ዝሕተት": 9450,
      "ከብቅዕ": 9451,
      "ልብን": 9452,
      "ነቶምን": 9453,
      "ርጉጽ": 9454,
      "ማሉ": 9455,
      "ምበኣር": 9456,
      "ሹም": 9457,
      "ዳሕራይ": 9458,
      "ጭራ": 9459,
      "ህልው": 9460,
      "ማርቆስ": 9461,
      "በለትኒ": 9462,
      "ንሰ": 9463,
      "ኣረጋገጸ": 9464,
      "ክትርእዮ": 9465,
      "ገብርሂወት": 9466,
      "ሓርነታዊ": 9467,
      "ቅያስ": 9468,
      "ትነብር": 9469,
      "ኣድል": 9470,
      "ዘዞ": 9471,
      "ደራን": 9472,
      "ተዛዘመ": 9473,
      "ሓረግ": 9474,
      "ሓሲበ": 9475,
      "ኣገዳስነቱ": 9476,
      "ማእቶታዊ": 9477,
      "ለየ": 9478,
      "ሙናን": 9479,
      "ይነብሩ": 9480,
      "ኣሎካ": 9481,
      "ዕድመን": 9482,
      "1277": 9483,
      "ንዝርከቡ": 9484,
      "ፍቕሪን": 9485,
      "ፈቐዶ": 9486,
      "110": 9487,
      "ልምድን": 9488,
      "ብኸምኡ": 9489,
      "ንሞት": 9490,
      "ጫው": 9491,
      "ጸባን": 9492,
      "ተቐል": 9493,
      "ማሽን": 9494,
      "ዓዙ": 9495,
      "ዓጺ": 9496,
      "መጋረጃ": 9497,
      "ሃጓፍ": 9498,
      "ስድራይ": 9499,
      "ከረጋግጽ": 9500,
      "ዝቝ": 9501,
      "ዝወዓለ": 9502,
      "ዝግመት": 9503,
      "ንምዕቃብ": 9504,
      "ስሉስ": 9505,
      "ገበረት": 9506,
      "ወላዲና": 9507,
      "መጠነ": 9508,
      "ብጾት": 9509,
      "ንነብስኻ": 9510,
      "ኣይነበረትን": 9511,
      "ናዊት": 9512,
      "ዶባት": 9513,
      "ጐኒ": 9514,
      "ጒዕዞ": 9515,
      "ጨቢ": 9516,
      "ተሰና": 9517,
      "ምምጋብ": 9518,
      "ምትካል": 9519,
      "ብምንታይ": 9520,
      "ምዉታት": 9521,
      "ኣልኣዛር": 9522,
      "ልእ": 9523,
      "ሙዝ": 9524,
      "ቐትን": 9525,
      "ብሳላ": 9526,
      "ኔራ": 9527,
      "ብርኩ": 9528,
      "ሌዋውያን": 9529,
      "ቃድር": 9530,
      "አንን": 9531,
      "ጸኦ": 9532,
      "ተጻብኦታት": 9533,
      "ኣይረኸብ": 9534,
      "ስነጥበብ": 9535,
      "ተኸዲ": 9536,
      "ዓቕመይ": 9537,
      "ጽርግያታት": 9538,
      "ጺሉ": 9539,
      "ክንከይድ": 9540,
      "እምነ": 9541,
      "ምልእቲ": 9542,
      "ተፈላል": 9543,
      "ሓተተት": 9544,
      "ዓጽሚ": 9545,
      "ጎላጉል": 9546,
      "ሽቕለት": 9547,
      "ብኩ": 9548,
      "ኣሓ": 9549,
      "ኣፕ": 9550,
      "ነበርና": 9551,
      "እተገብረ": 9552,
      "ዝግበረሉ": 9553,
      "ብድሕ": 9554,
      "ሕብረተሰብና": 9555,
      "ዝረኸብናዮ": 9556,
      "ኣመዝጊባ": 9557,
      "ዕስራን": 9558,
      "ቶር": 9559,
      "ዲዩ": 9560,
      "ጭብጥ": 9561,
      "ተኣምር": 9562,
      "ንምግታእ": 9563,
      "ስሒቡ": 9564,
      "ተድላ": 9565,
      "ዮምን": 9566,
      "ዳታ": 9567,
      "ገዛባንዳ": 9568,
      "ኣቦታትና": 9569,
      "ወለዶም": 9570,
      "ጸርፊ": 9571,
      "ውዕዉዕ": 9572,
      "ኣሽቱ": 9573,
      "ጻህያይ": 9574,
      "ሕዛእቲ": 9575,
      "ብ10": 9576,
      "ወቒ": 9577,
      "ዚነ": 9578,
      "ዚኣ": 9579,
      "ግሲ": 9580,
      "ከምቶም": 9581,
      "ደለኹ": 9582,
      "ብኸቢድ": 9583,
      "ትድ": 9584,
      "ገብረክርስቶስ": 9585,
      "ሕማማ": 9586,
      "ስምዒትን": 9587,
      "መኽበሪ": 9588,
      "ለገስቲ": 9589,
      "እንቋቝሖ": 9590,
      "ልያን": 9591,
      "ሻሙ": 9592,
      "ብስምዒት": 9593,
      "ዝጻ": 9594,
      "ዝምለስ": 9595,
      "ጢን": 9596,
      "ኣትሒዞም": 9597,
      "ዝበለቶ": 9598,
      "ህልኽ": 9599,
      "ኣይኰነትን": 9600,
      "ኣእዳዉ": 9601,
      "ሰገነይቲ": 9602,
      "ገሉ": 9603,
      "ፍቅር": 9604,
      "ሓድነትን": 9605,
      "ምናሴ": 9606,
      "ንሳል": 9607,
      "ጠቓሚ": 9608,
      "72": 9609,
      "ከምዛ": 9610,
      "ንምክያድ": 9611,
      "ተመለስ": 9612,
      "ሓላል": 9613,
      "ዝውታር": 9614,
      "ዝገበረት": 9615,
      "ጽሒፉ": 9616,
      "ተሐ": 9617,
      "ንመንግስቲ": 9618,
      "ጀማል": 9619,
      "ጽማ": 9620,
      "ክርእዩ": 9621,
      "ኣዕሪ": 9622,
      "ኣንስትዮን": 9623,
      "ተመልሱ": 9624,
      "ኣስመላሽ": 9625,
      "ክነብሩ": 9626,
      "ግድል": 9627,
      "ዘይው": 9628,
      "ሒታት": 9629,
      "ክሽን": 9630,
      "መዓርግ": 9631,
      "ሰሚዑ": 9632,
      "በዓቲ": 9633,
      "ክወስዱ": 9634,
      "ዘቢባ": 9635,
      "ቀም": 9636,
      "ቊጠባ": 9637,
      "ከሐ": 9638,
      "ዝተማ": 9639,
      "ክትው": 9640,
      "በልዑ": 9641,
      "ዕድግ": 9642,
      "መሰናድኦ": 9643,
      "74": 9644,
      "ራኢ": 9645,
      "ኣጀን": 9646,
      "ዘጠራጥር": 9647,
      "ያኖ": 9648,
      "ስድራቤትን": 9649,
      "ወከል": 9650,
      "ዘይትፈልጥ": 9651,
      "ፈጺማ": 9652,
      "ተማሃሮን": 9653,
      "ዕግርግር": 9654,
      "ሓፊ": 9655,
      "ሕቑ": 9656,
      "ምብላዕ": 9657,
      "ዋታ": 9658,
      "ውሎ": 9659,
      "ጣንን": 9660,
      "ምሕን": 9661,
      "ኣማረ": 9662,
      "ትኽእሉ": 9663,
      "ኽና": 9664,
      "ዕው": 9665,
      "ደንጐ": 9666,
      "ኣዝየን": 9667,
      "ኣቀባብላ": 9668,
      "ወጻእተኛታት": 9669,
      "ኣኽላባት": 9670,
      "ጸሓያዊ": 9671,
      "ቀታ": 9672,
      "ክገድ": 9673,
      "ዘኻኽር": 9674,
      "ጋሕ": 9675,
      "ኣስራ": 9676,
      "ስሕበት": 9677,
      "ጓርድዮላ": 9678,
      "ድኩ": 9679,
      "ኣርእዩ": 9680,
      "ገዛኡ": 9681,
      "ነታውያን": 9682,
      "ዝኽሰት": 9683,
      "ዋልታ": 9684,
      "ናዝ": 9685,
      "ክዉን": 9686,
      "ዝፋን": 9687,
      "ድቲ": 9688,
      "10ይ": 9689,
      "ተራእዮም": 9690,
      "ኢንዶ": 9691,
      "ዕዝዙ": 9692,
      "ቫይታሚን": 9693,
      "ማልን": 9694,
      "ሰዓል": 9695,
      "ትብለኒ": 9696,
      "ንሓሙሽተ": 9697,
      "ጽውጽ": 9698,
      "ከምዝጸንሐ": 9699,
      "ተመሊሰ": 9700,
      "1ብ1": 9701,
      "ሱሉ": 9702,
      "ቀበ": 9703,
      "ባሊ": 9704,
      "ብኣር": 9705,
      "ጠጥ": 9706,
      "ፍጠር": 9707,
      "እንገብሮ": 9708,
      "ትንታ": 9709,
      "ቀልቀል": 9710,
      "ሓዲሩ": 9711,
      "መዘክር": 9712,
      "ዲጋታት": 9713,
      "ተዋፊሮም": 9714,
      "ለዮ": 9715,
      "ተገብረ": 9716,
      "ክወር": 9717,
      "ዚኡ": 9718,
      "ዝውክል": 9719,
      "ክሕይል": 9720,
      "ቐንዲ": 9721,
      "ዘድልዮም": 9722,
      "ሲንጋፖር": 9723,
      "ብትግርኛ": 9724,
      "ኣድም": 9725,
      "ዊልያ": 9726,
      "ኣትሌ": 9727,
      "ዋሕስ": 9728,
      "ዓወትን": 9729,
      "እብለኩም": 9730,
      "ዀይኖም": 9731,
      "የካይዱ": 9732,
      "ርትዓዊ": 9733,
      "ምሕላው": 9734,
      "ንዝዀነ": 9735,
      "ጆርጅ": 9736,
      "ሕሱም": 9737,
      "ሰሩ": 9738,
      "ብሃንደበት": 9739,
      "ዝፈል": 9740,
      "ጥንታውያን": 9741,
      "ከተካይድ": 9742,
      "ኣውት": 9743,
      "ስጋን": 9744,
      "ምእካብ": 9745,
      "የቐንየለይ": 9746,
      "ምርኻብ": 9747,
      "መጻረዪ": 9748,
      "ስልጠናን": 9749,
      "ተፈሪ": 9750,
      "ዳህሳስ": 9751,
      "ንውሓት": 9752,
      "መዕለቢ": 9753,
      "ራህ": 9754,
      "ዝሰርሐ": 9755,
      "ጋና": 9756,
      "ጠያ": 9757,
      "ፍሐ": 9758,
      "ግብሮ": 9759,
      "ምእማን": 9760,
      "ለዊ": 9761,
      "ሌማን": 9762,
      "ብሌ": 9763,
      "ዘዛ": 9764,
      "ሕብረተሰ": 9765,
      "ዝፈጥረ": 9766,
      "ምርምርን": 9767,
      "ዝሰርሓ": 9768,
      "ተመስሪቱ": 9769,
      "ምሁራት": 9770,
      "ኣውዲቕካ": 9771,
      "95": 9772,
      "ሃይድ": 9773,
      "ብረላ": 9774,
      "1250": 9775,
      "ተስፋጋብር": 9776,
      "ጽንኩር": 9777,
      "ኣሚነ": 9778,
      "ዝርግሐ": 9779,
      "ኽሉ": 9780,
      "ርእዮን": 9781,
      "ዳንነት": 9782,
      "ስእነት": 9783,
      "ዝመጽአ": 9784,
      "ምሃ": 9785,
      "ኣገላል": 9786,
      "ማዕድ": 9787,
      "ይኸዱ": 9788,
      "***": 9789,
      "ካታ": 9790,
      "ክጎ": 9791,
      "ልዕሊኣ": 9792,
      "ብቐሊል": 9793,
      "ብሕታዊ": 9794,
      "ኩንታል": 9795,
      "መደበራት": 9796,
      "ጸመሉ": 9797,
      "ዓለምለኻዊ": 9798,
      "ግባሩ": 9799,
      "መሳፍን": 9800,
      "ጸኒሕና": 9801,
      "ፍትሓዊ": 9802,
      "ፕሮፈ": 9803,
      "መዓሾ": 9804,
      "እዋይ": 9805,
      "ሚላ": 9806,
      "ቋሕ": 9807,
      "ቡሉ": 9808,
      "ኣርኪ": 9809,
      "ምምራ": 9810,
      "ወሲኑ": 9811,
      "ክነሱ": 9812,
      "ዕድሚኡ": 9813,
      "ጀመራ": 9814,
      "ኣይፈ": 9815,
      "ተማቕር": 9816,
      "ዝተወደበ": 9817,
      "ሞይቶም": 9818,
      "ዝቖመ": 9819,
      "ሕምብር": 9820,
      "ቈጸራ": 9821,
      "ብሕርቃን": 9822,
      "ትናን": 9823,
      "ኢድና": 9824,
      "ኣምስ": 9825,
      "ዝክር": 9826,
      "ክትግበር": 9827,
      "ረብሕ": 9828,
      "ደቡብን": 9829,
      "ዓሰርተታት": 9830,
      "ንምምጻእ": 9831,
      "ጠጠው": 9832,
      "ተጻሒፉ": 9833,
      "88": 9834,
      "ምሻ": 9835,
      "ባኒ": 9836,
      "ካልአይቲ": 9837,
      "ተጸም": 9838,
      "ጸገማትን": 9839,
      "ሰማዒ": 9840,
      "ገዳምን": 9841,
      "ኣንበጣ": 9842,
      "ሸለልትነት": 9843,
      "ውህብቶ": 9844,
      "ዓድን": 9845,
      "ገዝኣ": 9846,
      "ጣጥ": 9847,
      "ኣማስያ": 9848,
      "ምግፋፍ": 9849,
      "ንጸላኢ": 9850,
      "ኩነታትን": 9851,
      "ክትህብ": 9852,
      "2021": 9853,
      "ጽቡቕን": 9854,
      "ድሌትን": 9855,
      "ሚኒስተራት": 9856,
      "ቆጻጸር": 9857,
      "እተሓ": 9858,
      "ኪው": 9859,
      "ዘእቱ": 9860,
      "ዝብሉን": 9861,
      "ይሃል": 9862,
      "ጓሶት": 9863,
      "ፖግባ": 9864,
      "ተገላ": 9865,
      "ሓገዝቲ": 9866,
      "ቀልጢፍካ": 9867,
      "ፖርቱጋል": 9868,
      "ሰዋስ": 9869,
      "ድአ": 9870,
      "ጃን": 9871,
      "ብሩኽ": 9872,
      "ንጥፈታቶም": 9873,
      "ምስጢራዊ": 9874,
      "ቍጽ": 9875,
      "ብዋጋ": 9876,
      "ግሎ": 9877,
      "ምሕታት": 9878,
      "መላለስ": 9879,
      "ሞየስ": 9880,
      "ሰትን": 9881,
      "ኖታ": 9882,
      "ጢጡ": 9883,
      "ኣይጸን": 9884,
      "እናበላ": 9885,
      "መስትያት": 9886,
      "ቦታታትን": 9887,
      "ስኮት": 9888,
      "ረያ": 9889,
      "ምስሪ": 9890,
      "ደልዮም": 9891,
      "ፍትኑ": 9892,
      "ፍዮሪ": 9893,
      "ንጽል": 9894,
      "ኣናብ": 9895,
      "ዚብሃል": 9896,
      "ዜሮ": 9897,
      "ኣይብልን": 9898,
      "ዓይነቱ": 9899,
      "ንዓጹ": 9900,
      "ስምዒቱ": 9901,
      "ዓርሞ": 9902,
      "\"'": 9903,
      "ምነ": 9904,
      "ሪቑ": 9905,
      "ጥምቀት": 9906,
      "ዝነው": 9907,
      "ሓውና": 9908,
      "ስብሃቱ": 9909,
      "ዝካየዱ": 9910,
      "ሙዎ": 9911,
      "ምሸ": 9912,
      "ሮማን": 9913,
      "ይዛረቡ": 9914,
      "ጋንን": 9915,
      "ፎንን": 9916,
      "ምስትውዓል": 9917,
      "ትራፎርድ": 9918,
      "ኣዘኻኺሮም": 9919,
      "ቍል": 9920,
      "ቐዳማይ": 9921,
      "ኣይከውንን": 9922,
      "ኣንባቢ": 9923,
      "ተወሃሂ": 9924,
      "ከምዝኽእሉ": 9925,
      "ልዕለይ": 9926,
      "ኣሳእ": 9927,
      "እሾ": 9928,
      "ወሃብ": 9929,
      "ጸቢ": 9930,
      "ዝተጸን": 9931,
      "ከምዝርከብ": 9932,
      "ኣምጺኡ": 9933,
      "ዑና": 9934,
      "ነገራ": 9935,
      "ስለዝኽእል": 9936,
      "ንጥፈታቱ": 9937,
      "ኣበርክቶን": 9938,
      "ተገዲዱ": 9939,
      "ሸፈነ": 9940,
      "ዲስ": 9941,
      "ዳድና": 9942,
      "ጥሜት": 9943,
      "ፈታዊ": 9944,
      "ግዜና": 9945,
      "ተጋድሎ": 9946,
      "ግፍዒ": 9947,
      "ተመርዕ": 9948,
      "ልዕለ": 9949,
      "ብሓጎስ": 9950,
      "ወርቅን": 9951,
      "ናልድ": 9952,
      "ኣከባብን": 9953,
      "ኣወዳድ": 9954,
      "ትእም": 9955,
      "ኣቲና": 9956,
      "ይሰርሑ": 9957,
      "ክፍት": 9958,
      "ርናፍ": 9959,
      "ተደኲ": 9960,
      "ሓራም": 9961,
      "ፈረቓን": 9962,
      "ኣጠማምታ": 9963,
      "ወሽ": 9964,
      "ዕሽሽ": 9965,
      "ገመል": 9966,
      "ፕሊን": 9967,
      "ኣይከ": 9968,
      "ዘሎካ": 9969,
      "ክንረክብ": 9970,
      "ማሕላ": 9971,
      "መግዛ": 9972,
      "ኤሌክት": 9973,
      "ሽተን": 9974,
      "ብማዕዶ": 9975,
      "ይጻወት": 9976,
      "እትበሃል": 9977,
      "ቀንዩ": 9978,
      "ንምውጋድ": 9979,
      "ዊንታ": 9980,
      "ክትብሎ": 9981,
      "ብርን": 9982,
      "ባህግ": 9983,
      "ዝተፈቕ": 9984,
      "ክጥቀስ": 9985,
      "ክዓዝዝ": 9986,
      "እንተዘይቀሪቦም": 9987,
      "በይንኻ": 9988,
      "ፍልስጥኤማውያን": 9989,
      "ኣስቶን": 9990,
      "መልሰ": 9991,
      "ደረጃን": 9992,
      "ጥምታ": 9993,
      "ጽንዓትን": 9994,
      "ሓቅታት": 9995,
      "ኣተን": 9996,
      "ዕቑር": 9997,
      "ዝጠቕ": 9998,
      "ዝዝርጋሕ": 9999,
      "ዞባን": 10000,
      "በብግዜኡ": 10001,
      "ዕንጸይቲ": 10002,
      "ክሊማዊ": 10003,
      "ተመሊሳ": 10004,
      "ተበጊሶም": 10005,
      "ምእታዉ": 10006,
      "ብተዛማዲ": 10007,
      "ከሉ": 10008,
      "ግለጽ": 10009,
      "ዘይነ": 10010,
      "1997": 10011,
      "ስፖርታውያን": 10012,
      "ሒዝዎ": 10013,
      "ጸጒ": 10014,
      "ተማቐ": 10015,
      "ንኸተ": 10016,
      "ዘጋጠማ": 10017,
      "መጐዓዝያ": 10018,
      "ሊባን": 10019,
      "ልዋ": 10020,
      "ቆምን": 10021,
      "ታም": 10022,
      "ንውሽጢ": 10023,
      "ዝጥ": 10024,
      "እናኾነ": 10025,
      "ምትግባር": 10026,
      "ትዕዝብቲ": 10027,
      "63": 10028,
      "ዓይነትን": 10029,
      "ንዝርከብ": 10030,
      "ፍትሽ": 10031,
      "ርሒቓ": 10032,
      "127749": 10033,
      "መፍትሕ": 10034,
      "ቴዎስ": 10035,
      "ኣዶ": 10036,
      "ኸሉ": 10037,
      "ንምጥቃስ": 10038,
      "ክስዕብ": 10039,
      "መለሳ": 10040,
      "ይስዕብ": 10041,
      "ቀልጢፎም": 10042,
      "ምምሕዳርን": 10043,
      "ውዳቤ": 10044,
      "ሚካል": 10045,
      "ሞስኮ": 10046,
      "ሴማ": 10047,
      "በኩም": 10048,
      "ጨርቂ": 10049,
      "ዝገቡ": 10050,
      "ወረቓ": 10051,
      "ከምዘይክእል": 10052,
      "1999": 10053,
      "ጓይላ": 10054,
      "ያሲን": 10055,
      "ክንሰርሕ": 10056,
      "መንግስተ": 10057,
      "ንግዳ": 10058,
      "ፍረታት": 10059,
      "ብቑዓት": 10060,
      "ዘረድእ": 10061,
      "ኣማልኽቲ": 10062,
      "ሲራ": 10063,
      "ቅንዕና": 10064,
      "ክጽሕፍ": 10065,
      "የገልግል": 10066,
      "ዩሉ": 10067,
      "ዝገለጽ": 10068,
      "ስምዖም": 10069,
      "ምትእኽ": 10070,
      "ፍቅሮ": 10071,
      "ቅድሜኻ": 10072,
      "125013": 10073,
      "ሕሩ": 10074,
      "ተዀ": 10075,
      "ፈሎ": 10076,
      "ክህልወካ": 10077,
      "ጠዓ": 10078,
      "ናቕፋን": 10079,
      "ፈረንሳን": 10080,
      "ተኺ": 10081,
      "ንዘለዎም": 10082,
      "ክፋሉ": 10083,
      "ቅዋም": 10084,
      "የዕ": 10085,
      "ድሓር": 10086,
      "ህልዎም": 10087,
      "ውድድሩ": 10088,
      "በጽሓ": 10089,
      "ዝካየደሉ": 10090,
      "ተሰሚዑኒ": 10091,
      "እኪ": 10092,
      "ተቐበል": 10093,
      "ተጻዋታ": 10094,
      "ምባሉ": 10095,
      "ጉድጓድ": 10096,
      "ረኣዮ": 10097,
      "ንሜዳ": 10098,
      "ዘገልግሉ": 10099,
      "ክትመስል": 10100,
      "ክብድ": 10101,
      "1284": 10102,
      "ነጥፋ": 10103,
      "ዝተኻየዱ": 10104,
      "ኣይነበር": 10105,
      "ኣበርቲዖም": 10106,
      "ቲራቮ": 10107,
      "ተንቀሳቓሲ": 10108,
      "ሊትሮ": 10109,
      "ነጊሩ": 10110,
      "ዘበሉ": 10111,
      "ደቕ": 10112,
      "ጽኩ": 10113,
      "መድኃ": 10114,
      "ገዛን": 10115,
      "ገጽና": 10116,
      "ኢለዮ": 10117,
      "ትሕዝቶታት": 10118,
      "ዝመርሕ": 10119,
      "ኣጻብ": 10120,
      "ስለዝጠፍኣኒ": 10121,
      "መዕረ": 10122,
      "ንኣይ": 10123,
      "ክህቦ": 10124,
      "ክህልዉ": 10125,
      "ሰረገላ": 10126,
      "ቦሎኛ": 10127,
      "ኣጀንዳ": 10128,
      "ላዊት": 10129,
      "ጥጡ": 10130,
      "ንዝጸንሐ": 10131,
      "ሓጋይ": 10132,
      "ተጫረቲ": 10133,
      "ነውሪ": 10134,
      "ኣርጀንቲናዊ": 10135,
      "ዕድለ": 10136,
      "ታንክ": 10137,
      "መሊሳ": 10138,
      "ከበሮ": 10139,
      "ተኸታታሊት": 10140,
      "ብጌጋ": 10141,
      "ዓርክ": 10142,
      "ኣርብዓ": 10143,
      "ገዲፈ": 10144,
      "ሰትዩ": 10145,
      "ጽናሕ": 10146,
      "ኣድማስ": 10147,
      "ይርከቦ": 10148,
      "ተሰዊኡ": 10149,
      "ለሰ": 10150,
      "መሽ": 10151,
      "ቲሎም": 10152,
      "ክኣት": 10153,
      "ፈልጢ": 10154,
      "ዘንቱ": 10155,
      "ዓቢይ": 10156,
      "ምቅይያር": 10157,
      "ወረቓቕቲ": 10158,
      "ስጒ": 10159,
      "ንእግረ": 10160,
      "ዝኣመ": 10161,
      "ኣይፋል": 10162,
      "መልኣከ": 10163,
      "ብራኽ": 10164,
      "ለውቲ": 10165,
      "ኣዕጽ": 10166,
      "ንጽህና": 10167,
      "ተሰሪሑ": 10168,
      "ምጥቃስ": 10169,
      "ክትዛ": 10170,
      "ገምጋ": 10171,
      "ንኣእምሮ": 10172,
      "ኣማኒ": 10173,
      "ጻዕሪን": 10174,
      "ንምስራሕ": 10175,
      "ናባኻ": 10176,
      "ተሰንዩ": 10177,
      "ክረምታዊ": 10178,
      "ዘገዳምን": 10179,
      "ገሰት": 10180,
      "ጓሳ": 10181,
      "ብልጽግ": 10182,
      "ብራውያን": 10183,
      "ርናዮ": 10184,
      "ሓድሕዳዊ": 10185,
      "ፕሮጀክትታት": 10186,
      "ንገብር": 10187,
      "ብልጽቲ": 10188,
      "ሃገሩን": 10189,
      "ምጽራይ": 10190,
      "ይግመት": 10191,
      "ለውሉ": 10192,
      "ውሕስ": 10193,
      "ስብከት": 10194,
      "ዝሃበቶ": 10195,
      "በዞም": 10196,
      "ከሚካ": 10197,
      "ዘገዳም": 10198,
      "ዘይኰይኑ": 10199,
      "ዘንግዕ": 10200,
      "ርያል": 10201,
      "ቤተሰብ": 10202,
      "ዝሰርሓሉ": 10203,
      "ዓምበርበብ": 10204,
      "መጨ": 10205,
      "ዝጀመር": 10206,
      "ላትኩም": 10207,
      "ኣረጊት": 10208,
      "ኣበየናይ": 10209,
      "ሊኡ": 10210,
      "ቺለ": 10211,
      "ዘእተወ": 10212,
      "ዚሕ": 10213,
      "መንጎኦም": 10214,
      "ኣዕኑ": 10215,
      "ተመሊሶም": 10216,
      "69": 10217,
      "ብተኸታታሊ": 10218,
      "ዝከኣ": 10219,
      "ደአ": 10220,
      "ኣንጻ": 10221,
      "ተቐመጠ": 10222,
      "ሳዕስዒ": 10223,
      "ዓንዶም": 10224,
      "ህልቂ": 10225,
      "ብምንባሮም": 10226,
      "ንእት": 10227,
      "ካኒ": 10228,
      "መስሪ": 10229,
      "ንእኡ": 10230,
      "ሃበና": 10231,
      "እኩይ": 10232,
      "ሓቲቱ": 10233,
      "ኣሲድ": 10234,
      "ኣመንቲ": 10235,
      "ዳህላክ": 10236,
      "ትሓስብ": 10237,
      "ዚመስል": 10238,
      "ደለይ": 10239,
      "ጃም": 10240,
      "ከይከ": 10241,
      "ኣፍረይቲ": 10242,
      "ጥንቁ": 10243,
      "ቁመት": 10244,
      "ኣሸጋሪ": 10245,
      "ሖምን": 10246,
      "ኽእሊ": 10247,
      "ማርታ": 10248,
      "ኢንስቲት": 10249,
      "ዝደልዮ": 10250,
      "ዶናልድ": 10251,
      "ምንቕ": 10252,
      "ድንግ": 10253,
      "ሓያልን": 10254,
      "ከስዐ": 10255,
      "ሕጽረታት": 10256,
      "ርኣየ": 10257,
      "ባኦ": 10258,
      "ብዝበለ": 10259,
      "ብዓውታ": 10260,
      "ኮሜ": 10261,
      "ጐዳ": 10262,
      "ማእከላት": 10263,
      "ተዓገስ": 10264,
      "ተራእያ": 10265,
      "ምግራብ": 10266,
      "ብስሩዕ": 10267,
      "ብምንጽጻር": 10268,
      "ዝቕመጡ": 10269,
      "ስከ": 10270,
      "ንትምህርቲ": 10271,
      "ንመስዋእቲ": 10272,
      "ዘገል": 10273,
      "ክትዓ": 10274,
      "ምህንድ": 10275,
      "ስቓይ": 10276,
      "ሕምብርቲ": 10277,
      "ሄሎ": 10278,
      "ዘካይዱ": 10279,
      "ኣቦኻ": 10280,
      "ምዝካር": 10281,
      "ሰደቓ": 10282,
      "ሮይተርስ": 10283,
      "ፓራዲዞ": 10284,
      "ብዝተኻእለ": 10285,
      "ራሚ": 10286,
      "ስኩ": 10287,
      "ንብዙሕ": 10288,
      "ጣም": 10289,
      "ጥቃዕ": 10290,
      "ቅዱስን": 10291,
      "ፖሊስን": 10292,
      "ጥፍኡ": 10293,
      "ዘየለኻሉ": 10294,
      "ልኡኻት": 10295,
      "ድሉዋት": 10296,
      "ተጠቃሚ": 10297,
      "ኣድሓኖም": 10298,
      "ሞሮኮ": 10299,
      "ብጣዕሚ": 10300,
      "ውነትን": 10301,
      "ጃክ": 10302,
      "ዝተጋ": 10303,
      "ርከብን": 10304,
      "ምርኮ": 10305,
      "ተሓታቲ": 10306,
      "ኢንጂ": 10307,
      "መምህራንን": 10308,
      "በሎን": 10309,
      "በጺሕና": 10310,
      "ዝተገብረሉ": 10311,
      "ተጻዊቱ": 10312,
      "ሂወታ": 10313,
      "ረሳሕ": 10314,
      "ኣጓ": 10315,
      "ክዀነ": 10316,
      "ኻህናት": 10317,
      "የመን": 10318,
      "ያውን": 10319,
      "ኣይመስልን": 10320,
      "ክንፈ": 10321,
      "ተሰሊ": 10322,
      "ሰማይን": 10323,
      "ንደቆም": 10324,
      "ግብጻውያን": 10325,
      "ሂባ": 10326,
      "ትፈልጡ": 10327,
      "ንክልተ": 10328,
      "ኣራን": 10329,
      "ከቲ": 10330,
      "ዲሲ": 10331,
      "ዶት": 10332,
      "ጥርጡ": 10333,
      "ጠመተት": 10334,
      "ፎርቶ": 10335,
      "ለኻ": 10336,
      "ረቕ": 10337,
      "ብብቕዓት": 10338,
      "ቲቢ": 10339,
      "ኮፒ": 10340,
      "ዝተመደ": 10341,
      "ዝተመረ": 10342,
      "ማእከልን": 10343,
      "ዘየድሊ": 10344,
      "በዅሪ": 10345,
      "ኮፓ": 10346,
      "ኽነ": 10347,
      "ፍፍ": 10348,
      "ዘሕዝን": 10349,
      "ሄት": 10350,
      "ብዓረብ": 10351,
      "ጓልና": 10352,
      "ከምእትኽእል": 10353,
      "ዝበረኸ": 10354,
      "ንምቁጽጻር": 10355,
      "ሰንተር": 10356,
      "ወሰንቲ": 10357,
      "የነጽር": 10358,
      "ዳሃብ": 10359,
      "ዝወሰድ": 10360,
      "እንከለው": 10361,
      "ዘንጊ": 10362,
      "ኣደዳ": 10363,
      "የሳ": 10364,
      "ዝተላእ": 10365,
      "በልጁ": 10366,
      "ቤተክርስቲያን": 10367,
      "ንኸይት": 10368,
      "ክኸፍል": 10369,
      "ፍኡ": 10370,
      "እግራ": 10371,
      "ንምርኣይ": 10372,
      "ሰደድ": 10373,
      "ኣውራጃ": 10374,
      "64": 10375,
      "ሸዊት": 10376,
      "ቆን": 10377,
      "ዝሓቖ": 10378,
      "ተስፋን": 10379,
      "ምዝዛ": 10380,
      "ግሉጽ": 10381,
      "ብለይቲ": 10382,
      "ዅነታት": 10383,
      "ዶክተራት": 10384,
      "ከይህሉ": 10385,
      "ዝርከብዎም": 10386,
      "ማድሪድን": 10387,
      "ተወሲዱ": 10388,
      "ኺድ": 10389,
      "ዐይ": 10390,
      "ፋሕቲ": 10391,
      "ስዒራ": 10392,
      "ዝተሓወሶ": 10393,
      "ውቅያኖ": 10394,
      "ቦኮ": 10395,
      "ክፈት": 10396,
      "ብሓጐስ": 10397,
      "ገልጻ": 10398,
      "ዋላስ": 10399,
      "ኣሚን": 10400,
      "ኒውዮርክ": 10401,
      "ኣስመረት": 10402,
      "ብሸነኽ": 10403,
      "ዝያን": 10404,
      "ጻማ": 10405,
      "ኤርትራዊት": 10406,
      "ንኺድ": 10407,
      "ተሓታትነት": 10408,
      "ሱና": 10409,
      "ሶፍት": 10410,
      "ጥይት": 10411,
      "ክትር": 10412,
      "ግልጺ": 10413,
      "ጓዓዙ": 10414,
      "ዝልለ": 10415,
      "ዝተመስረተ": 10416,
      "ፖርቱጋላዊ": 10417,
      "ረፍቲ": 10418,
      "ንክኸውን": 10419,
      "ንዳዊት": 10420,
      "ከገልግል": 10421,
      "ምንቅስቓሳት": 10422,
      "ንምምላእ": 10423,
      "መራኸቢታት": 10424,
      "ኣኻውሕ": 10425,
      "ጣልያን": 10426,
      "ብይን": 10427,
      "ዝወዳ": 10428,
      "ትእዛዛ": 10429,
      "ፈነወ": 10430,
[...]
